{
  "version": "1.0",
  "truncation": null,
  "padding": null,
  "added_tokens": [
    {
      "id": 0,
      "content": "<unk>",
      "single_word": false,
      "lstrip": false,
      "rstrip": false,
      "normalized": false,
      "special": true
    }
  ],
  "normalizer": {
    "type": "Sequence",
    "normalizers": [
      {
        "type": "NFKC"
      }
    ]
  },
  "pre_tokenizer": {
    "type": "Whitespace"
  },
  "post_processor": null,
  "decoder": null,
  "model": {
    "type": "BPE",
    "dropout": null,
    "unk_token": null,
    "continuing_subword_prefix": null,
    "end_of_word_suffix": null,
    "fuse_unk": false,
    "byte_fallback": false,
    "ignore_merges": false,
    "vocab": {
      "<unk>": 0,
      "\b": 1,
      "!": 2,
      "\"": 3,
      "#": 4,
      "$": 5,
      "%": 6,
      "&": 7,
      "'": 8,
      "(": 9,
      ")": 10,
      "*": 11,
      "+": 12,
      ",": 13,
      "-": 14,
      ".": 15,
      "/": 16,
      "0": 17,
      "1": 18,
      "2": 19,
      "3": 20,
      "4": 21,
      "5": 22,
      "6": 23,
      "7": 24,
      "8": 25,
      "9": 26,
      ":": 27,
      ";": 28,
      "<": 29,
      "=": 30,
      ">": 31,
      "?": 32,
      "A": 33,
      "B": 34,
      "C": 35,
      "D": 36,
      "E": 37,
      "F": 38,
      "G": 39,
      "H": 40,
      "I": 41,
      "J": 42,
      "K": 43,
      "L": 44,
      "M": 45,
      "N": 46,
      "O": 47,
      "P": 48,
      "Q": 49,
      "R": 50,
      "S": 51,
      "T": 52,
      "U": 53,
      "V": 54,
      "W": 55,
      "X": 56,
      "Y": 57,
      "Z": 58,
      "[": 59,
      "]": 60,
      "^": 61,
      "_": 62,
      "`": 63,
      "a": 64,
      "b": 65,
      "c": 66,
      "d": 67,
      "e": 68,
      "f": 69,
      "g": 70,
      "h": 71,
      "i": 72,
      "j": 73,
      "k": 74,
      "l": 75,
      "m": 76,
      "n": 77,
      "o": 78,
      "p": 79,
      "q": 80,
      "r": 81,
      "s": 82,
      "t": 83,
      "u": 84,
      "v": 85,
      "w": 86,
      "x": 87,
      "y": 88,
      "z": 89,
      "{": 90,
      "|": 91,
      "}": 92,
      "~": 93,
      "«": 94,
      "·": 95,
      "»": 96,
      "×": 97,
      "ø": 98,
      "ĥ": 99,
      "Φ": 100,
      "Ф": 101,
      "ᄀ": 102,
      "ᄂ": 103,
      "ᄃ": 104,
      "ᄄ": 105,
      "ᄅ": 106,
      "ᄇ": 107,
      "ᄉ": 108,
      "ᄋ": 109,
      "ᄌ": 110,
      "ᄎ": 111,
      "ᄏ": 112,
      "ᄐ": 113,
      "ᄑ": 114,
      "ᄒ": 115,
      "ᅡ": 116,
      "ᅢ": 117,
      "ᅥ": 118,
      "ᅦ": 119,
      "ᅩ": 120,
      "ᅮ": 121,
      "ᅲ": 122,
      "ᅳ": 123,
      "ᅵ": 124,
      "ᆞ": 125,
      "‍": 126,
      "‘": 127,
      "’": 128,
      "•": 129,
      "※": 130,
      "₩": 131,
      "≪": 132,
      "≫": 133,
      "⌵": 134,
      "□": 135,
      "△": 136,
      "▶": 137,
      "○": 138,
      "●": 139,
      "☀": 140,
      "☁": 141,
      "★": 142,
      "☆": 143,
      "☕": 144,
      "☘": 145,
      "☺": 146,
      "♀": 147,
      "♒": 148,
      "♡": 149,
      "♥": 150,
      "♧": 151,
      "♨": 152,
      "♫": 153,
      "⚡": 154,
      "✅": 155,
      "✌": 156,
      "✔": 157,
      "✦": 158,
      "✨": 159,
      "❄": 160,
      "❇": 161,
      "❌": 162,
      "❗": 163,
      "❣": 164,
      "❤": 165,
      "➰": 166,
      "⠀": 167,
      "⭐": 168,
      "。": 169,
      "》": 170,
      "【": 171,
      "】": 172,
      "〰": 173,
      "イ": 174,
      "エ": 175,
      "グ": 176,
      "ッ": 177,
      "ト": 178,
      "ネ": 179,
      "マ": 180,
      "ロ": 181,
      "中": 182,
      "丶": 183,
      "乇": 184,
      "人": 185,
      "品": 186,
      "国": 187,
      "坠": 188,
      "大": 189,
      "子": 190,
      "小": 191,
      "帽": 192,
      "戒": 193,
      "指": 194,
      "日": 195,
      "有": 196,
      "本": 197,
      "毛": 198,
      "没": 199,
      "环": 200,
      "的": 201,
      "皮": 202,
      "真": 203,
      "石": 204,
      "福": 205,
      "秀": 206,
      "耳": 207,
      "花": 208,
      "钉": 209,
      "银": 210,
      "雪": 211,
      "韩": 212,
      "饰": 213,
      "Ꙩ": 214,
      "가": 215,
      "각": 216,
      "간": 217,
      "갈": 218,
      "갌": 219,
      "감": 220,
      "갑": 221,
      "값": 222,
      "갓": 223,
      "갔": 224,
      "강": 225,
      "같": 226,
      "개": 227,
      "객": 228,
      "갠": 229,
      "갤": 230,
      "갬": 231,
      "갯": 232,
      "갱": 233,
      "갸": 234,
      "걀": 235,
      "걍": 236,
      "거": 237,
      "걱": 238,
      "건": 239,
      "걸": 240,
      "검": 241,
      "겁": 242,
      "것": 243,
      "겅": 244,
      "겉": 245,
      "게": 246,
      "겐": 247,
      "겔": 248,
      "겜": 249,
      "겟": 250,
      "겠": 251,
      "겨": 252,
      "격": 253,
      "견": 254,
      "결": 255,
      "겸": 256,
      "겹": 257,
      "겻": 258,
      "경": 259,
      "계": 260,
      "고": 261,
      "곡": 262,
      "곤": 263,
      "곧": 264,
      "골": 265,
      "곰": 266,
      "곱": 267,
      "공": 268,
      "곶": 269,
      "과": 270,
      "곽": 271,
      "관": 272,
      "괄": 273,
      "괌": 274,
      "광": 275,
      "괜": 276,
      "괴": 277,
      "괼": 278,
      "교": 279,
      "굠": 280,
      "굥": 281,
      "구": 282,
      "국": 283,
      "군": 284,
      "굳": 285,
      "굴": 286,
      "굵": 287,
      "굶": 288,
      "굼": 289,
      "굽": 290,
      "굿": 291,
      "궁": 292,
      "궂": 293,
      "궈": 294,
      "권": 295,
      "궤": 296,
      "귀": 297,
      "귄": 298,
      "귓": 299,
      "규": 300,
      "균": 301,
      "귤": 302,
      "그": 303,
      "극": 304,
      "근": 305,
      "글": 306,
      "금": 307,
      "급": 308,
      "긋": 309,
      "긍": 310,
      "기": 311,
      "긱": 312,
      "긴": 313,
      "길": 314,
      "김": 315,
      "깁": 316,
      "깃": 317,
      "깅": 318,
      "깊": 319,
      "까": 320,
      "깍": 321,
      "깎": 322,
      "깐": 323,
      "깔": 324,
      "깜": 325,
      "깡": 326,
      "깨": 327,
      "깰": 328,
      "깻": 329,
      "깽": 330,
      "꺅": 331,
      "꺌": 332,
      "꺠": 333,
      "꺼": 334,
      "꺽": 335,
      "꺾": 336,
      "껄": 337,
      "껌": 338,
      "껍": 339,
      "껏": 340,
      "껑": 341,
      "께": 342,
      "꼬": 343,
      "꼭": 344,
      "꼰": 345,
      "꼴": 346,
      "꼼": 347,
      "꼽": 348,
      "꽁": 349,
      "꽂": 350,
      "꽃": 351,
      "꽅": 352,
      "꽆": 353,
      "꽇": 354,
      "꽈": 355,
      "꽉": 356,
      "꽥": 357,
      "꾀": 358,
      "꾜": 359,
      "꾸": 360,
      "꾹": 361,
      "꾼": 362,
      "꿀": 363,
      "꿈": 364,
      "꿉": 365,
      "꿍": 366,
      "꿏": 367,
      "꿔": 368,
      "뀌": 369,
      "뀐": 370,
      "뀜": 371,
      "뀨": 372,
      "끄": 373,
      "끈": 374,
      "끌": 375,
      "끔": 376,
      "끗": 377,
      "끝": 378,
      "끼": 379,
      "낀": 380,
      "낄": 381,
      "낌": 382,
      "낏": 383,
      "낑": 384,
      "나": 385,
      "낙": 386,
      "낚": 387,
      "난": 388,
      "날": 389,
      "남": 390,
      "납": 391,
      "낫": 392,
      "낭": 393,
      "낮": 394,
      "낱": 395,
      "낳": 396,
      "내": 397,
      "낵": 398,
      "낸": 399,
      "낼": 400,
      "냄": 401,
      "냅": 402,
      "냇": 403,
      "냉": 404,
      "냐": 405,
      "냑": 406,
      "냔": 407,
      "냠": 408,
      "냥": 409,
      "너": 410,
      "넉": 411,
      "넌": 412,
      "널": 413,
      "넓": 414,
      "넘": 415,
      "넙": 416,
      "넛": 417,
      "넝": 418,
      "넣": 419,
      "네": 420,
      "넥": 421,
      "넨": 422,
      "넬": 423,
      "넵": 424,
      "넷": 425,
      "넹": 426,
      "녀": 427,
      "년": 428,
      "념": 429,
      "녕": 430,
      "노": 431,
      "녹": 432,
      "논": 433,
      "놀": 434,
      "놈": 435,
      "놉": 436,
      "놋": 437,
      "농": 438,
      "높": 439,
      "뇌": 440,
      "뇨": 441,
      "뇸": 442,
      "뇽": 443,
      "누": 444,
      "눈": 445,
      "눌": 446,
      "눔": 447,
      "눕": 448,
      "눗": 449,
      "눠": 450,
      "뉘": 451,
      "뉴": 452,
      "늄": 453,
      "느": 454,
      "늑": 455,
      "는": 456,
      "늘": 457,
      "늙": 458,
      "늠": 459,
      "능": 460,
      "늦": 461,
      "늬": 462,
      "니": 463,
      "닉": 464,
      "닌": 465,
      "닐": 466,
      "님": 467,
      "닙": 468,
      "닛": 469,
      "닝": 470,
      "닢": 471,
      "다": 472,
      "닥": 473,
      "닦": 474,
      "단": 475,
      "닫": 476,
      "달": 477,
      "닭": 478,
      "닮": 479,
      "닳": 480,
      "담": 481,
      "답": 482,
      "닷": 483,
      "당": 484,
      "닻": 485,
      "대": 486,
      "댁": 487,
      "댄": 488,
      "댈": 489,
      "댐": 490,
      "댑": 491,
      "댓": 492,
      "댕": 493,
      "댤": 494,
      "더": 495,
      "덕": 496,
      "던": 497,
      "덜": 498,
      "덟": 499,
      "덤": 500,
      "덥": 501,
      "덧": 502,
      "덩": 503,
      "덮": 504,
      "데": 505,
      "덱": 506,
      "덴": 507,
      "델": 508,
      "뎀": 509,
      "뎁": 510,
      "뎃": 511,
      "뎅": 512,
      "뎌": 513,
      "뎐": 514,
      "뎨": 515,
      "도": 516,
      "독": 517,
      "돈": 518,
      "돋": 519,
      "돌": 520,
      "돔": 521,
      "돕": 522,
      "돗": 523,
      "동": 524,
      "돛": 525,
      "돼": 526,
      "되": 527,
      "된": 528,
      "될": 529,
      "됨": 530,
      "됩": 531,
      "됫": 532,
      "두": 533,
      "둑": 534,
      "둘": 535,
      "둠": 536,
      "둥": 537,
      "둿": 538,
      "뒈": 539,
      "뒤": 540,
      "뒷": 541,
      "뒹": 542,
      "듀": 543,
      "듈": 544,
      "듐": 545,
      "드": 546,
      "득": 547,
      "든": 548,
      "들": 549,
      "듬": 550,
      "듭": 551,
      "듯": 552,
      "등": 553,
      "듸": 554,
      "디": 555,
      "딕": 556,
      "딘": 557,
      "딜": 558,
      "딤": 559,
      "딥": 560,
      "딧": 561,
      "딩": 562,
      "따": 563,
      "딱": 564,
      "딲": 565,
      "딴": 566,
      "딸": 567,
      "땀": 568,
      "땅": 569,
      "땋": 570,
      "때": 571,
      "땔": 572,
      "땜": 573,
      "땡": 574,
      "떙": 575,
      "떠": 576,
      "떡": 577,
      "떤": 578,
      "떨": 579,
      "떼": 580,
      "뗀": 581,
      "뗄": 582,
      "뗌": 583,
      "뗑": 584,
      "또": 585,
      "똑": 586,
      "똔": 587,
      "똥": 588,
      "뚜": 589,
      "뚝": 590,
      "뚠": 591,
      "뚤": 592,
      "뚫": 593,
      "뚱": 594,
      "뛰": 595,
      "뜨": 596,
      "뜩": 597,
      "뜰": 598,
      "뜷": 599,
      "뜸": 600,
      "뜻": 601,
      "띄": 602,
      "띠": 603,
      "띵": 604,
      "라": 605,
      "락": 606,
      "란": 607,
      "랄": 608,
      "람": 609,
      "랍": 610,
      "랏": 611,
      "랑": 612,
      "래": 613,
      "랙": 614,
      "랜": 615,
      "랠": 616,
      "램": 617,
      "랩": 618,
      "랪": 619,
      "랫": 620,
      "랭": 621,
      "랼": 622,
      "량": 623,
      "러": 624,
      "럭": 625,
      "런": 626,
      "럳": 627,
      "럴": 628,
      "럷": 629,
      "럼": 630,
      "럽": 631,
      "럿": 632,
      "렁": 633,
      "렇": 634,
      "레": 635,
      "렉": 636,
      "렌": 637,
      "렐": 638,
      "렘": 639,
      "렙": 640,
      "렛": 641,
      "렝": 642,
      "려": 643,
      "력": 644,
      "련": 645,
      "렬": 646,
      "렴": 647,
      "렵": 648,
      "렸": 649,
      "령": 650,
      "례": 651,
      "로": 652,
      "록": 653,
      "론": 654,
      "롤": 655,
      "롬": 656,
      "롭": 657,
      "롯": 658,
      "롱": 659,
      "롶": 660,
      "롸": 661,
      "뢰": 662,
      "료": 663,
      "룡": 664,
      "루": 665,
      "룩": 666,
      "룬": 667,
      "룰": 668,
      "룸": 669,
      "룹": 670,
      "룻": 671,
      "룽": 672,
      "뤄": 673,
      "뤠": 674,
      "뤼": 675,
      "륀": 676,
      "륄": 677,
      "류": 678,
      "륜": 679,
      "률": 680,
      "륨": 681,
      "르": 682,
      "륵": 683,
      "른": 684,
      "를": 685,
      "름": 686,
      "릅": 687,
      "릇": 688,
      "릉": 689,
      "릎": 690,
      "리": 691,
      "릭": 692,
      "린": 693,
      "릴": 694,
      "림": 695,
      "립": 696,
      "릿": 697,
      "링": 698,
      "맂": 699,
      "맆": 700,
      "마": 701,
      "막": 702,
      "만": 703,
      "많": 704,
      "말": 705,
      "맑": 706,
      "맘": 707,
      "맙": 708,
      "맛": 709,
      "망": 710,
      "맞": 711,
      "매": 712,
      "맥": 713,
      "맨": 714,
      "맬": 715,
      "맴": 716,
      "맵": 717,
      "맷": 718,
      "맹": 719,
      "맺": 720,
      "먈": 721,
      "먕": 722,
      "머": 723,
      "먹": 724,
      "먼": 725,
      "멀": 726,
      "멈": 727,
      "멋": 728,
      "멍": 729,
      "메": 730,
      "멕": 731,
      "멘": 732,
      "멜": 733,
      "멤": 734,
      "멧": 735,
      "멩": 736,
      "며": 737,
      "면": 738,
      "멸": 739,
      "명": 740,
      "모": 741,
      "목": 742,
      "몬": 743,
      "몰": 744,
      "몸": 745,
      "몹": 746,
      "못": 747,
      "몽": 748,
      "뫼": 749,
      "묘": 750,
      "무": 751,
      "묵": 752,
      "묶": 753,
      "묷": 754,
      "문": 755,
      "묻": 756,
      "물": 757,
      "뭄": 758,
      "뭇": 759,
      "뭉": 760,
      "뭌": 761,
      "뭎": 762,
      "뭐": 763,
      "뭑": 764,
      "뭔": 765,
      "뭬": 766,
      "뮈": 767,
      "뮌": 768,
      "뮤": 769,
      "뮬": 770,
      "뮹": 771,
      "므": 772,
      "믄": 773,
      "믈": 774,
      "미": 775,
      "믹": 776,
      "민": 777,
      "믿": 778,
      "밀": 779,
      "밈": 780,
      "밋": 781,
      "밌": 782,
      "밍": 783,
      "및": 784,
      "밑": 785,
      "바": 786,
      "박": 787,
      "밖": 788,
      "반": 789,
      "받": 790,
      "발": 791,
      "밝": 792,
      "밤": 793,
      "밥": 794,
      "밧": 795,
      "방": 796,
      "밭": 797,
      "밯": 798,
      "배": 799,
      "백": 800,
      "밴": 801,
      "밸": 802,
      "뱀": 803,
      "뱁": 804,
      "뱃": 805,
      "뱅": 806,
      "뱈": 807,
      "뱡": 808,
      "버": 809,
      "벅": 810,
      "번": 811,
      "벌": 812,
      "범": 813,
      "법": 814,
      "벗": 815,
      "벙": 816,
      "벚": 817,
      "벛": 818,
      "베": 819,
      "벡": 820,
      "벤": 821,
      "벨": 822,
      "벰": 823,
      "벳": 824,
      "벵": 825,
      "벹": 826,
      "벼": 827,
      "벽": 828,
      "변": 829,
      "별": 830,
      "볍": 831,
      "병": 832,
      "볕": 833,
      "보": 834,
      "복": 835,
      "볶": 836,
      "본": 837,
      "볼": 838,
      "봄": 839,
      "봇": 840,
      "봉": 841,
      "봎": 842,
      "봐": 843,
      "봤": 844,
      "봥": 845,
      "뵤": 846,
      "뵨": 847,
      "부": 848,
      "북": 849,
      "분": 850,
      "불": 851,
      "붉": 852,
      "붐": 853,
      "붑": 854,
      "붓": 855,
      "붕": 856,
      "붙": 857,
      "뷔": 858,
      "뷰": 859,
      "븀": 860,
      "븅": 861,
      "브": 862,
      "븐": 863,
      "블": 864,
      "븕": 865,
      "븥": 866,
      "비": 867,
      "빅": 868,
      "빈": 869,
      "빋": 870,
      "빌": 871,
      "빔": 872,
      "빕": 873,
      "빗": 874,
      "빙": 875,
      "빚": 876,
      "빛": 877,
      "빠": 878,
      "빡": 879,
      "빤": 880,
      "빨": 881,
      "빵": 882,
      "빼": 883,
      "빽": 884,
      "뺏": 885,
      "뺑": 886,
      "뺨": 887,
      "뺭": 888,
      "뺴": 889,
      "뺵": 890,
      "뻐": 891,
      "뻑": 892,
      "뻔": 893,
      "뻗": 894,
      "뻥": 895,
      "뼈": 896,
      "뽀": 897,
      "뽁": 898,
      "뽂": 899,
      "뽄": 900,
      "뽈": 901,
      "뽐": 902,
      "뽑": 903,
      "뽕": 904,
      "뾰": 905,
      "뾱": 906,
      "뿅": 907,
      "뿌": 908,
      "뿍": 909,
      "뿐": 910,
      "뿔": 911,
      "뿜": 912,
      "뿡": 913,
      "쁘": 914,
      "쁜": 915,
      "쁠": 916,
      "쁨": 917,
      "삐": 918,
      "삑": 919,
      "삔": 920,
      "삣": 921,
      "삥": 922,
      "사": 923,
      "삭": 924,
      "산": 925,
      "살": 926,
      "삶": 927,
      "삼": 928,
      "삽": 929,
      "삿": 930,
      "상": 931,
      "샆": 932,
      "새": 933,
      "색": 934,
      "샌": 935,
      "샐": 936,
      "샘": 937,
      "샛": 938,
      "생": 939,
      "샤": 940,
      "샥": 941,
      "샨": 942,
      "샬": 943,
      "샴": 944,
      "샵": 945,
      "샷": 946,
      "샹": 947,
      "샾": 948,
      "섀": 949,
      "서": 950,
      "석": 951,
      "섞": 952,
      "선": 953,
      "설": 954,
      "섬": 955,
      "섭": 956,
      "섯": 957,
      "성": 958,
      "세": 959,
      "섹": 960,
      "센": 961,
      "셀": 962,
      "셈": 963,
      "셉": 964,
      "셋": 965,
      "셏": 966,
      "셑": 967,
      "셔": 968,
      "셕": 969,
      "션": 970,
      "셜": 971,
      "셤": 972,
      "셥": 973,
      "셧": 974,
      "셰": 975,
      "셸": 976,
      "소": 977,
      "속": 978,
      "손": 979,
      "솔": 980,
      "솜": 981,
      "솝": 982,
      "솟": 983,
      "송": 984,
      "솥": 985,
      "쇄": 986,
      "쇠": 987,
      "쇼": 988,
      "숀": 989,
      "숄": 990,
      "숍": 991,
      "숏": 992,
      "숑": 993,
      "수": 994,
      "숙": 995,
      "순": 996,
      "숟": 997,
      "술": 998,
      "숨": 999,
      "숩": 1000,
      "숫": 1001,
      "숭": 1002,
      "숯": 1003,
      "숱": 1004,
      "숲": 1005,
      "숼": 1006,
      "쉐": 1007,
      "쉑": 1008,
      "쉘": 1009,
      "쉡": 1010,
      "쉣": 1011,
      "쉬": 1012,
      "쉴": 1013,
      "쉼": 1014,
      "쉽": 1015,
      "쉿": 1016,
      "슈": 1017,
      "슐": 1018,
      "슘": 1019,
      "슛": 1020,
      "스": 1021,
      "슥": 1022,
      "슨": 1023,
      "슬": 1024,
      "슴": 1025,
      "습": 1026,
      "슷": 1027,
      "승": 1028,
      "슽": 1029,
      "슾": 1030,
      "싀": 1031,
      "시": 1032,
      "식": 1033,
      "신": 1034,
      "실": 1035,
      "심": 1036,
      "십": 1037,
      "싯": 1038,
      "싱": 1039,
      "싶": 1040,
      "싸": 1041,
      "싹": 1042,
      "싼": 1043,
      "쌀": 1044,
      "쌈": 1045,
      "쌍": 1046,
      "쌔": 1047,
      "쌕": 1048,
      "쌘": 1049,
      "쌜": 1050,
      "쌤": 1051,
      "쌩": 1052,
      "쌰": 1053,
      "써": 1054,
      "썩": 1055,
      "썬": 1056,
      "썰": 1057,
      "썸": 1058,
      "썹": 1059,
      "쎄": 1060,
      "쎈": 1061,
      "쎌": 1062,
      "쎝": 1063,
      "쏘": 1064,
      "쏙": 1065,
      "쏜": 1066,
      "쏠": 1067,
      "쏭": 1068,
      "쑈": 1069,
      "쑝": 1070,
      "쑤": 1071,
      "쑥": 1072,
      "쑴": 1073,
      "쓰": 1074,
      "쓱": 1075,
      "쓴": 1076,
      "쓸": 1077,
      "씀": 1078,
      "씨": 1079,
      "씩": 1080,
      "씬": 1081,
      "씰": 1082,
      "씸": 1083,
      "씻": 1084,
      "씽": 1085,
      "아": 1086,
      "악": 1087,
      "안": 1088,
      "앉": 1089,
      "않": 1090,
      "알": 1091,
      "앓": 1092,
      "암": 1093,
      "압": 1094,
      "앗": 1095,
      "았": 1096,
      "앙": 1097,
      "앚": 1098,
      "앞": 1099,
      "애": 1100,
      "액": 1101,
      "앤": 1102,
      "앨": 1103,
      "앰": 1104,
      "앱": 1105,
      "앳": 1106,
      "앵": 1107,
      "야": 1108,
      "약": 1109,
      "얀": 1110,
      "얄": 1111,
      "얆": 1112,
      "얇": 1113,
      "얌": 1114,
      "얍": 1115,
      "얏": 1116,
      "양": 1117,
      "얘": 1118,
      "어": 1119,
      "억": 1120,
      "언": 1121,
      "얹": 1122,
      "얼": 1123,
      "엄": 1124,
      "업": 1125,
      "없": 1126,
      "엇": 1127,
      "었": 1128,
      "엉": 1129,
      "엎": 1130,
      "에": 1131,
      "엑": 1132,
      "엔": 1133,
      "엘": 1134,
      "엠": 1135,
      "엣": 1136,
      "엥": 1137,
      "여": 1138,
      "역": 1139,
      "엮": 1140,
      "연": 1141,
      "열": 1142,
      "염": 1143,
      "엽": 1144,
      "엿": 1145,
      "영": 1146,
      "옅": 1147,
      "옆": 1148,
      "예": 1149,
      "옐": 1150,
      "옙": 1151,
      "옛": 1152,
      "오": 1153,
      "옥": 1154,
      "온": 1155,
      "올": 1156,
      "옳": 1157,
      "옴": 1158,
      "옵": 1159,
      "옷": 1160,
      "옹": 1161,
      "옺": 1162,
      "옻": 1163,
      "와": 1164,
      "왁": 1165,
      "완": 1166,
      "왈": 1167,
      "왑": 1168,
      "왓": 1169,
      "왔": 1170,
      "왕": 1171,
      "왝": 1172,
      "외": 1173,
      "왼": 1174,
      "요": 1175,
      "욕": 1176,
      "욘": 1177,
      "욜": 1178,
      "욤": 1179,
      "용": 1180,
      "우": 1181,
      "욱": 1182,
      "운": 1183,
      "울": 1184,
      "움": 1185,
      "웁": 1186,
      "웃": 1187,
      "웅": 1188,
      "워": 1189,
      "웍": 1190,
      "원": 1191,
      "월": 1192,
      "웜": 1193,
      "웡": 1194,
      "웨": 1195,
      "웩": 1196,
      "웬": 1197,
      "웰": 1198,
      "웹": 1199,
      "웻": 1200,
      "위": 1201,
      "윅": 1202,
      "윈": 1203,
      "윌": 1204,
      "윔": 1205,
      "윕": 1206,
      "윗": 1207,
      "윙": 1208,
      "유": 1209,
      "육": 1210,
      "윤": 1211,
      "율": 1212,
      "윰": 1213,
      "융": 1214,
      "으": 1215,
      "은": 1216,
      "을": 1217,
      "음": 1218,
      "읏": 1219,
      "응": 1220,
      "의": 1221,
      "이": 1222,
      "익": 1223,
      "인": 1224,
      "일": 1225,
      "읽": 1226,
      "잃": 1227,
      "임": 1228,
      "입": 1229,
      "잇": 1230,
      "있": 1231,
      "잉": 1232,
      "잋": 1233,
      "잌": 1234,
      "잎": 1235,
      "자": 1236,
      "작": 1237,
      "잔": 1238,
      "잘": 1239,
      "잠": 1240,
      "잡": 1241,
      "잣": 1242,
      "장": 1243,
      "재": 1244,
      "잭": 1245,
      "잰": 1246,
      "잼": 1247,
      "쟁": 1248,
      "쟈": 1249,
      "쟌": 1250,
      "쟤": 1251,
      "저": 1252,
      "적": 1253,
      "전": 1254,
      "절": 1255,
      "젊": 1256,
      "점": 1257,
      "접": 1258,
      "젓": 1259,
      "정": 1260,
      "젖": 1261,
      "제": 1262,
      "젝": 1263,
      "젠": 1264,
      "젤": 1265,
      "젬": 1266,
      "젯": 1267,
      "젱": 1268,
      "져": 1269,
      "젼": 1270,
      "졍": 1271,
      "조": 1272,
      "족": 1273,
      "존": 1274,
      "졸": 1275,
      "좀": 1276,
      "좁": 1277,
      "종": 1278,
      "좋": 1279,
      "좌": 1280,
      "좔": 1281,
      "죄": 1282,
      "죠": 1283,
      "죤": 1284,
      "죵": 1285,
      "주": 1286,
      "죽": 1287,
      "준": 1288,
      "줄": 1289,
      "줌": 1290,
      "줍": 1291,
      "중": 1292,
      "줗": 1293,
      "줘": 1294,
      "쥐": 1295,
      "쥑": 1296,
      "쥬": 1297,
      "쥰": 1298,
      "쥴": 1299,
      "즈": 1300,
      "즉": 1301,
      "즌": 1302,
      "즐": 1303,
      "즘": 1304,
      "즙": 1305,
      "증": 1306,
      "즴": 1307,
      "지": 1308,
      "직": 1309,
      "진": 1310,
      "짇": 1311,
      "질": 1312,
      "짐": 1313,
      "집": 1314,
      "짓": 1315,
      "징": 1316,
      "짙": 1317,
      "짚": 1318,
      "짜": 1319,
      "짝": 1320,
      "짠": 1321,
      "짤": 1322,
      "짧": 1323,
      "짬": 1324,
      "짱": 1325,
      "째": 1326,
      "짹": 1327,
      "쨈": 1328,
      "쨍": 1329,
      "쩍": 1330,
      "쩔": 1331,
      "쩜": 1332,
      "쪠": 1333,
      "쪼": 1334,
      "쪽": 1335,
      "쫀": 1336,
      "쫄": 1337,
      "쫑": 1338,
      "쫙": 1339,
      "쭈": 1340,
      "쭉": 1341,
      "쭌": 1342,
      "쮸": 1343,
      "쯔": 1344,
      "찌": 1345,
      "찍": 1346,
      "찐": 1347,
      "찔": 1348,
      "찜": 1349,
      "찝": 1350,
      "찡": 1351,
      "찢": 1352,
      "차": 1353,
      "착": 1354,
      "찬": 1355,
      "찮": 1356,
      "찰": 1357,
      "찱": 1358,
      "참": 1359,
      "찹": 1360,
      "찻": 1361,
      "창": 1362,
      "찾": 1363,
      "채": 1364,
      "책": 1365,
      "챈": 1366,
      "챌": 1367,
      "챔": 1368,
      "챙": 1369,
      "챠": 1370,
      "챵": 1371,
      "처": 1372,
      "척": 1373,
      "천": 1374,
      "철": 1375,
      "첨": 1376,
      "첩": 1377,
      "첫": 1378,
      "청": 1379,
      "체": 1380,
      "첵": 1381,
      "첸": 1382,
      "첼": 1383,
      "쳇": 1384,
      "쳌": 1385,
      "쳐": 1386,
      "쳤": 1387,
      "쳬": 1388,
      "초": 1389,
      "촉": 1390,
      "촌": 1391,
      "촐": 1392,
      "촘": 1393,
      "촛": 1394,
      "총": 1395,
      "촤": 1396,
      "촬": 1397,
      "촵": 1398,
      "최": 1399,
      "쵝": 1400,
      "쵸": 1401,
      "춍": 1402,
      "추": 1403,
      "축": 1404,
      "춘": 1405,
      "출": 1406,
      "춤": 1407,
      "춥": 1408,
      "충": 1409,
      "춰": 1410,
      "췍": 1411,
      "취": 1412,
      "츄": 1413,
      "츈": 1414,
      "츌": 1415,
      "츕": 1416,
      "츠": 1417,
      "측": 1418,
      "츤": 1419,
      "츴": 1420,
      "층": 1421,
      "치": 1422,
      "칙": 1423,
      "친": 1424,
      "칠": 1425,
      "침": 1426,
      "칩": 1427,
      "칫": 1428,
      "칭": 1429,
      "칲": 1430,
      "카": 1431,
      "칵": 1432,
      "칸": 1433,
      "칼": 1434,
      "캄": 1435,
      "캅": 1436,
      "캇": 1437,
      "캉": 1438,
      "캐": 1439,
      "캑": 1440,
      "캔": 1441,
      "캘": 1442,
      "캠": 1443,
      "캡": 1444,
      "캣": 1445,
      "캥": 1446,
      "캬": 1447,
      "캭": 1448,
      "커": 1449,
      "컨": 1450,
      "컬": 1451,
      "컴": 1452,
      "컵": 1453,
      "컷": 1454,
      "케": 1455,
      "켄": 1456,
      "켈": 1457,
      "켑": 1458,
      "켓": 1459,
      "켕": 1460,
      "켜": 1461,
      "켤": 1462,
      "켬": 1463,
      "켭": 1464,
      "코": 1465,
      "콕": 1466,
      "콘": 1467,
      "콜": 1468,
      "콤": 1469,
      "콥": 1470,
      "콧": 1471,
      "콩": 1472,
      "콰": 1473,
      "쾌": 1474,
      "쿄": 1475,
      "쿠": 1476,
      "쿡": 1477,
      "쿤": 1478,
      "쿨": 1479,
      "쿱": 1480,
      "쿵": 1481,
      "쿼": 1482,
      "퀀": 1483,
      "퀄": 1484,
      "퀘": 1485,
      "퀜": 1486,
      "퀴": 1487,
      "퀵": 1488,
      "퀸": 1489,
      "퀼": 1490,
      "큐": 1491,
      "큘": 1492,
      "큥": 1493,
      "큩": 1494,
      "크": 1495,
      "큰": 1496,
      "클": 1497,
      "큼": 1498,
      "키": 1499,
      "킥": 1500,
      "킨": 1501,
      "킬": 1502,
      "킴": 1503,
      "킵": 1504,
      "킷": 1505,
      "킹": 1506,
      "타": 1507,
      "탁": 1508,
      "탄": 1509,
      "탈": 1510,
      "탉": 1511,
      "탐": 1512,
      "탑": 1513,
      "탓": 1514,
      "탕": 1515,
      "태": 1516,
      "택": 1517,
      "탠": 1518,
      "탬": 1519,
      "탭": 1520,
      "탱": 1521,
      "탹": 1522,
      "터": 1523,
      "턱": 1524,
      "턴": 1525,
      "턷": 1526,
      "털": 1527,
      "텀": 1528,
      "텃": 1529,
      "텅": 1530,
      "테": 1531,
      "텍": 1532,
      "텐": 1533,
      "텔": 1534,
      "템": 1535,
      "텝": 1536,
      "텟": 1537,
      "토": 1538,
      "톡": 1539,
      "톤": 1540,
      "톧": 1541,
      "톨": 1542,
      "톰": 1543,
      "톱": 1544,
      "톳": 1545,
      "통": 1546,
      "퇴": 1547,
      "툥": 1548,
      "투": 1549,
      "툭": 1550,
      "툰": 1551,
      "툴": 1552,
      "툼": 1553,
      "퉁": 1554,
      "튀": 1555,
      "튈": 1556,
      "튜": 1557,
      "튠": 1558,
      "튤": 1559,
      "튬": 1560,
      "튭": 1561,
      "트": 1562,
      "특": 1563,
      "튼": 1564,
      "틀": 1565,
      "틈": 1566,
      "틍": 1567,
      "틑": 1568,
      "틔": 1569,
      "티": 1570,
      "틱": 1571,
      "틴": 1572,
      "틸": 1573,
      "팀": 1574,
      "팁": 1575,
      "팅": 1576,
      "파": 1577,
      "팍": 1578,
      "팎": 1579,
      "판": 1580,
      "팔": 1581,
      "팖": 1582,
      "팜": 1583,
      "팝": 1584,
      "팟": 1585,
      "팡": 1586,
      "팥": 1587,
      "팦": 1588,
      "패": 1589,
      "팩": 1590,
      "팬": 1591,
      "팯": 1592,
      "팰": 1593,
      "팸": 1594,
      "팻": 1595,
      "팽": 1596,
      "퍄": 1597,
      "퍤": 1598,
      "퍼": 1599,
      "펀": 1600,
      "펄": 1601,
      "펌": 1602,
      "펏": 1603,
      "펑": 1604,
      "페": 1605,
      "펙": 1606,
      "펜": 1607,
      "펠": 1608,
      "펩": 1609,
      "펫": 1610,
      "펭": 1611,
      "펴": 1612,
      "편": 1613,
      "평": 1614,
      "폐": 1615,
      "포": 1616,
      "폭": 1617,
      "폰": 1618,
      "폴": 1619,
      "폼": 1620,
      "폿": 1621,
      "퐁": 1622,
      "표": 1623,
      "푠": 1624,
      "푯": 1625,
      "푱": 1626,
      "푸": 1627,
      "푹": 1628,
      "푼": 1629,
      "풀": 1630,
      "품": 1631,
      "풉": 1632,
      "풋": 1633,
      "풍": 1634,
      "풔": 1635,
      "퓨": 1636,
      "퓰": 1637,
      "퓸": 1638,
      "프": 1639,
      "픈": 1640,
      "플": 1641,
      "픓": 1642,
      "픔": 1643,
      "픗": 1644,
      "픙": 1645,
      "픞": 1646,
      "피": 1647,
      "픽": 1648,
      "핀": 1649,
      "필": 1650,
      "핌": 1651,
      "핍": 1652,
      "핏": 1653,
      "핑": 1654,
      "핔": 1655,
      "하": 1656,
      "학": 1657,
      "한": 1658,
      "할": 1659,
      "핥": 1660,
      "함": 1661,
      "합": 1662,
      "핫": 1663,
      "항": 1664,
      "핰": 1665,
      "핱": 1666,
      "해": 1667,
      "핵": 1668,
      "핸": 1669,
      "핼": 1670,
      "햄": 1671,
      "햅": 1672,
      "햇": 1673,
      "했": 1674,
      "행": 1675,
      "햐": 1676,
      "향": 1677,
      "허": 1678,
      "헉": 1679,
      "헌": 1680,
      "헐": 1681,
      "험": 1682,
      "헙": 1683,
      "헛": 1684,
      "헝": 1685,
      "헤": 1686,
      "헥": 1687,
      "헨": 1688,
      "헬": 1689,
      "헴": 1690,
      "헵": 1691,
      "헷": 1692,
      "헹": 1693,
      "혁": 1694,
      "현": 1695,
      "혈": 1696,
      "혐": 1697,
      "협": 1698,
      "혓": 1699,
      "형": 1700,
      "혜": 1701,
      "혱": 1702,
      "호": 1703,
      "혹": 1704,
      "혼": 1705,
      "홀": 1706,
      "홈": 1707,
      "홉": 1708,
      "홋": 1709,
      "홍": 1710,
      "홑": 1711,
      "화": 1712,
      "확": 1713,
      "환": 1714,
      "활": 1715,
      "황": 1716,
      "홰": 1717,
      "회": 1718,
      "획": 1719,
      "효": 1720,
      "횰": 1721,
      "후": 1722,
      "훅": 1723,
      "훈": 1724,
      "훌": 1725,
      "훔": 1726,
      "훕": 1727,
      "훗": 1728,
      "훝": 1729,
      "훼": 1730,
      "휘": 1731,
      "휙": 1732,
      "휜": 1733,
      "휠": 1734,
      "휴": 1735,
      "흉": 1736,
      "흐": 1737,
      "흑": 1738,
      "흔": 1739,
      "흘": 1740,
      "흙": 1741,
      "흡": 1742,
      "흥": 1743,
      "흩": 1744,
      "희": 1745,
      "흰": 1746,
      "히": 1747,
      "힌": 1748,
      "힐": 1749,
      "힘": 1750,
      "힙": 1751,
      "힛": 1752,
      "️": 1753,
      "﻿": 1754,
      "🅰": 1755,
      "🅱": 1756,
      "🅾": 1757,
      "🆎": 1758,
      "🆘": 1759,
      "🇰": 1760,
      "🇷": 1761,
      "🌈": 1762,
      "🌊": 1763,
      "🌏": 1764,
      "🌙": 1765,
      "🌛": 1766,
      "🌟": 1767,
      "🌴": 1768,
      "🌷": 1769,
      "🌸": 1770,
      "🌹": 1771,
      "🌺": 1772,
      "🌻": 1773,
      "🌼": 1774,
      "🍀": 1775,
      "🍂": 1776,
      "🍄": 1777,
      "🍅": 1778,
      "🍇": 1779,
      "🍊": 1780,
      "🍎": 1781,
      "🍏": 1782,
      "🍑": 1783,
      "🍒": 1784,
      "🍓": 1785,
      "🍙": 1786,
      "🍞": 1787,
      "🍨": 1788,
      "🍭": 1789,
      "🍰": 1790,
      "🎀": 1791,
      "🎃": 1792,
      "🎄": 1793,
      "🎶": 1794,
      "🏄": 1795,
      "🏖": 1796,
      "🏻": 1797,
      "🐒": 1798,
      "🐙": 1799,
      "🐚": 1800,
      "🐟": 1801,
      "🐠": 1802,
      "🐢": 1803,
      "🐣": 1804,
      "🐥": 1805,
      "🐧": 1806,
      "🐬": 1807,
      "🐰": 1808,
      "🐱": 1809,
      "🐶": 1810,
      "🐸": 1811,
      "🐻": 1812,
      "🐼": 1813,
      "🐾": 1814,
      "👉": 1815,
      "👍": 1816,
      "💎": 1817,
      "💐": 1818,
      "💕": 1819,
      "💖": 1820,
      "💗": 1821,
      "💘": 1822,
      "💙": 1823,
      "💚": 1824,
      "💛": 1825,
      "💜": 1826,
      "💞": 1827,
      "💟": 1828,
      "💥": 1829,
      "💫": 1830,
      "📍": 1831,
      "📝": 1832,
      "📦": 1833,
      "📷": 1834,
      "🔔": 1835,
      "🔥": 1836,
      "🔴": 1837,
      "🔷": 1838,
      "🔺": 1839,
      "🕊": 1840,
      "🖤": 1841,
      "😃": 1842,
      "😄": 1843,
      "😉": 1844,
      "😊": 1845,
      "😭": 1846,
      "🙌": 1847,
      "🟤": 1848,
      "🤍": 1849,
      "🤎": 1850,
      "🤠": 1851,
      "🤭": 1852,
      "🥕": 1853,
      "🥖": 1854,
      "🥜": 1855,
      "🥦": 1856,
      "🥰": 1857,
      "🥹": 1858,
      "🥺": 1859,
      "🦊": 1860,
      "🦋": 1861,
      "🦒": 1862,
      "🦛": 1863,
      "🦦": 1864,
      "🧀": 1865,
      "🧊": 1866,
      "🧡": 1867,
      "🧢": 1868,
      "🧤": 1869,
      "🧦": 1870,
      "🧯": 1871,
      "🧸": 1872,
      "🩲": 1873,
      "🩴": 1874,
      "🩵": 1875,
      "🩶": 1876,
      "🩷": 1877,
      "🪼": 1878,
      "🫛": 1879,
      "🫧": 1880,
      "🫶": 1881,
      "아동": 1882,
      "복_": 1883,
      "아동복_": 1884,
      "악세": 1885,
      "사리": 1886,
      "악세사리": 1887,
      "의_": 1888,
      ")[": 1889,
      "화_": 1890,
      "잡화_": 1891,
      "악세사리_": 1892,
      "패션": 1893,
      "아동복_상": 1894,
      "24": 1895,
      "23": 1896,
      "걸이": 1897,
      "패션잡화_": 1898,
      "아동복_상의_": 1899,
      "여름": 1900,
      "가을": 1901,
      "세트": 1902,
      "하의_": 1903,
      "바지": 1904,
      "아동복_하의_": 1905,
      "귀걸이": 1906,
      "셔츠": 1907,
      "헤어": 1908,
      "하복": 1909,
      "티셔츠": 1910,
      "피스": 1911,
      "원피스": 1912,
      "아동복_상의_티셔츠": 1913,
      "실버": 1914,
      "아동복_하의_바지": 1915,
      "25": 1916,
      "24여름": 1917,
      "925": 1918,
      "24가을": 1919,
      "귀걸이_": 1920,
      "투맨": 1921,
      "맨투맨": 1922,
      "악세사리_귀걸이_": 1923,
      "기타": 1924,
      "아동악세사리": 1925,
      "패션잡화_아동악세사리": 1926,
      "23가을": 1927,
      "세트_": 1928,
      "23여름": 1929,
      "겨울": 1930,
      "실버925": 1931,
      "아동복_상하복": 1932,
      "아동복_상하복세트_": 1933,
      "모자": 1934,
      "팬츠": 1935,
      "상하복": 1936,
      "23겨울": 1937,
      "패션잡화_헤어": 1938,
      "패션잡화_헤어악세사리_": 1939,
      "목걸이": 1940,
      "후드": 1941,
      "아동복_상하복세트_상하복": 1942,
      "24봄": 1943,
      "반지": 1944,
      "가방": 1945,
      "품_": 1946,
      "아동복_아동": 1947,
      "베베": 1948,
      "아우": 1949,
      "아우터": 1950,
      "리본": 1951,
      "아우터_": 1952,
      "서리": 1953,
      "양말": 1954,
      "악세서리": 1955,
      "데코": 1956,
      "아동복_아동악세서리": 1957,
      "키링": 1958,
      "베이": 1959,
      "집게": 1960,
      "아동복_아우터_": 1961,
      "홈데코": 1962,
      "패션잡화_패션": 1963,
      "아동복_상의_맨투맨": 1964,
      "장갑": 1965,
      "집게핀": 1966,
      "_원피스": 1967,
      "아동복_원피스": 1968,
      "피어": 1969,
      "피어싱": 1970,
      "아동복_원피스_원피스": 1971,
      "라이": 1972,
      "이즈": 1973,
      "패션잡화_패션악세사리_": 1974,
      "베이비": 1975,
      "하트": 1976,
      "커트": 1977,
      "타이즈": 1978,
      "자켓": 1979,
      "스커트": 1980,
      "_실버925": 1981,
      "레이": 1982,
      "미니": 1983,
      "의류": 1984,
      "잡화_양말": 1985,
      "밴드": 1986,
      "머리": 1987,
      "_기타": 1988,
      "신발": 1989,
      "의류_": 1990,
      "아이": 1991,
      "깅스": 1992,
      "점퍼": 1993,
      "레깅스": 1994,
      "여성": 1995,
      "부자": 1996,
      "라이프": 1997,
      "지컬": 1998,
      "부자재": 1999,
      "써지컬": 2000,
      "팔찌": 2001,
      "악세사리_목걸이": 2002,
      "수트": 2003,
      "주방": 2004,
      "우스": 2005,
      "헤어악세사리": 2006,
      "아동복_베이비": 2007,
      "스트": 2008,
      "바디": 2009,
      "상하": 2010,
      "바디수트": 2011,
      "악세사리_반지": 2012,
      "라이프_": 2013,
      "아동복_베이비_": 2014,
      "10": 2015,
      "아동복_베이비_바디수트": 2016,
      "가디": 2017,
      "가디건": 2018,
      "용품_": 2019,
      "신발_": 2020,
      "소품_": 2021,
      "블라": 2022,
      "슈트": 2023,
      "일리": 2024,
      "블라우스": 2025,
      "의류_여성": 2026,
      "니트": 2027,
      "아동복_아우터_자켓": 2028,
      "주방용품_": 2029,
      "체인": 2030,
      "큐빅": 2031,
      "가방악세사리": 2032,
      "데일리": 2033,
      "진주": 2034,
      "패션잡화_패션악세사리_키링": 2035,
      "스마": 2036,
      "아동복_신발_": 2037,
      "헤어밴드": 2038,
      "패션잡화_헤어악세사리_집게핀": 2039,
      "스터": 2040,
      "식기": 2041,
      "실내": 2042,
      "아동복_기타": 2043,
      "00": 2044,
      "파우": 2045,
      "청바지": 2046,
      "패션잡화_헤어악세사리_핀": 2047,
      "플라": 2048,
      "나시": 2049,
      "홈데코소품_": 2050,
      "라이프_홈데코소품_": 2051,
      "조끼": 2052,
      "체크": 2053,
      "은침": 2054,
      "아동복_하의_스커트": 2055,
      "제이": 2056,
      "플라워": 2057,
      "실내복": 2058,
      "드롭": 2059,
      "스터드": 2060,
      "이드": 2061,
      "악세사리_피어싱": 2062,
      "악세사리_귀걸이_실버925": 2063,
      "데님": 2064,
      "파우치": 2065,
      "블루": 2066,
      "아동복_하의_레깅스": 2067,
      "용기": 2068,
      "악세사리_목걸이_": 2069,
      "터치": 2070,
      "키즈": 2071,
      "레이스": 2072,
      "상의_": 2073,
      "주방용품_식기": 2074,
      "용기_": 2075,
      "이어": 2076,
      "원터치": 2077,
      "신상": 2078,
      "아동복_하의_청바지": 2079,
      "악세사리_귀걸이_스터드": 2080,
      "머리끈": 2081,
      "제작": 2082,
      "악세사리_팔찌": 2083,
      "주문": 2084,
      "인트": 2085,
      "카라": 2086,
      "악세사리_반지_실버925": 2087,
      "악세사리_귀걸이_기타": 2088,
      "의류_여성상의_": 2089,
      "장식": 2090,
      "악세사리_귀걸이_드롭": 2091,
      "기모": 2092,
      "부자재_": 2093,
      "지갑": 2094,
      "주문제작": 2095,
      "스마일": 2096,
      "조거": 2097,
      "골지": 2098,
      "인형": 2099,
      "악세사리_주문제작": 2100,
      "아동복_상의_블라우스": 2101,
      "베어": 2102,
      "곱창": 2103,
      "동물": 2104,
      "아동복_기타_기타": 2105,
      "자수": 2106,
      "악세사리_피어싱_": 2107,
      "삭스": 2108,
      "토끼": 2109,
      "터번": 2110,
      "20": 2111,
      "남방": 2112,
      "악세사리_반지_": 2113,
      "다나": 2114,
      "프릴": 2115,
      "반다나": 2116,
      "리스": 2117,
      "블랙": 2118,
      "반팔": 2119,
      "이트": 2120,
      "아동복_아우터_가디건": 2121,
      "마이": 2122,
      "패션잡화_헤어악세사리_헤어밴드": 2123,
      "하이": 2124,
      "15": 2125,
      "헤어핀": 2126,
      "쁘띠": 2127,
      "14": 2128,
      "스타": 2129,
      "악세사리_목걸이_실버925": 2130,
      "모델": 2131,
      "컬러": 2132,
      "반바지": 2133,
      "한복": 2134,
      "패션잡화_가방": 2135,
      "지갑_": 2136,
      "배색": 2137,
      "소매": 2138,
      "아동복_상하복세트_실내복": 2139,
      "사각": 2140,
      "cm": 2141,
      "문구": 2142,
      "반려": 2143,
      "반려동물": 2144,
      "스크": 2145,
      "반려동물_": 2146,
      "던트": 2147,
      "라운": 2148,
      "구두": 2149,
      "12": 2150,
      "에이": 2151,
      "스티": 2152,
      "핑크": 2153,
      "소품": 2154,
      "바이": 2155,
      "스웨": 2156,
      "가라": 2157,
      "거지": 2158,
      "데이": 2159,
      "벙거지": 2160,
      "머리띠": 2161,
      "악세사리_귀걸이_은침": 2162,
      "운동": 2163,
      "브로": 2164,
      "악세사리_피어싱_써지컬": 2165,
      "단가라": 2166,
      "모바": 2167,
      "운동화": 2168,
      "모바일": 2169,
      "모바일악세사리": 2170,
      "패션잡화_패션악세사리_모바일악세사리": 2171,
      "아동복_신발_구두": 2172,
      "크로": 2173,
      "완구": 2174,
      "심플": 2175,
      "라라": 2176,
      "01": 2177,
      "상하세트": 2178,
      "테리": 2179,
      "데일리샵": 2180,
      "조거팬츠": 2181,
      "er": 2182,
      "코튼": 2183,
      "계절": 2184,
      "미소": 2185,
      "포인트": 2186,
      "베리": 2187,
      "도레": 2188,
      "케이": 2189,
      "부츠": 2190,
      "꽃_": 2191,
      "화이트": 2192,
      "악세사리_목걸이_체인": 2193,
      "곱창밴드": 2194,
      "스웨터": 2195,
      "돌이": 2196,
      "11": 2197,
      "악세사리_귀걸이_링": 2198,
      "아동복_신발_계절": 2199,
      "포켓": 2200,
      "02": 2201,
      "핸드": 2202,
      "아동복_아우터_조끼": 2203,
      "다이어": 2204,
      "듀디": 2205,
      "다이어리": 2206,
      "기획": 2207,
      "버니": 2208,
      "웨어": 2209,
      "아동복_상의_셔츠": 2210,
      "머리핀": 2211,
      "아동복_기타_": 2212,
      "재료": 2213,
      "치마": 2214,
      "18": 2215,
      "크롭": 2216,
      "13": 2217,
      "비다이어리": 2218,
      "진열": 2219,
      "펜던트": 2220,
      "진열대": 2221,
      "스틸": 2222,
      "곰돌이": 2223,
      "03": 2224,
      "재료부자재": 2225,
      "ol": 2226,
      "오브": 2227,
      "쥬쥬": 2228,
      "패션잡화_헤어악세사리_머리끈": 2229,
      "단품": 2230,
      "크로스": 2231,
      "22": 2232,
      "부자재_재료부자재": 2233,
      "mm": 2234,
      "라스": 2235,
      "멜빵": 2236,
      "스판": 2237,
      "무지": 2238,
      "악세사리_반지_단품": 2239,
      "ver": 2240,
      "or": 2241,
      "와이드": 2242,
      "홈웨어": 2243,
      "반려동물_패션": 2244,
      "러브": 2245,
      "코코": 2246,
      "브로치": 2247,
      "종세트": 2248,
      "세일": 2249,
      "품절": 2250,
      "얼리": 2251,
      "레이어": 2252,
      "골드": 2253,
      "et": 2254,
      "비비": 2255,
      "고리": 2256,
      "il": 2257,
      "집업": 2258,
      "공예": 2259,
      "나비": 2260,
      "라인": 2261,
      "ilver": 2262,
      "들리": 2263,
      "써지컬스틸": 2264,
      "라운드": 2265,
      "olor": 2266,
      "아지": 2267,
      "패션잡화_헤어악세사리_곱창밴드": 2268,
      "강아지": 2269,
      "04": 2270,
      "악세사리_팔찌_": 2271,
      "오브제": 2272,
      "레이어드": 2273,
      "키들리": 2274,
      "오뜨": 2275,
      "엘리": 2276,
      "color": 2277,
      "라이프_홈데코소품_오브제": 2278,
      "보넷": 2279,
      "버킷": 2280,
      "set": 2281,
      "패딩": 2282,
      "비니": 2283,
      "봉봉": 2284,
      "주름": 2285,
      "아동복_신발_운동화": 2286,
      "미용": 2287,
      "스트랩": 2288,
      "니어": 2289,
      "도트": 2290,
      "접시": 2291,
      "조화_": 2292,
      "꽃_조화_": 2293,
      "SE": 2294,
      "똑딱": 2295,
      "레인": 2296,
      "추가": 2297,
      "데님팬츠": 2298,
      "머그": 2299,
      "아크": 2300,
      "주니어": 2301,
      "린넨": 2302,
      "카고": 2303,
      "클로": 2304,
      "조화": 2305,
      "반려동물_패션_": 2306,
      "모자_": 2307,
      "방울": 2308,
      "남성": 2309,
      "패션잡화_모자_": 2310,
      "양말세트": 2311,
      "16": 2312,
      "골덴": 2313,
      "썸머": 2314,
      "숄더": 2315,
      "아크릴": 2316,
      "랜드": 2317,
      "세인트": 2318,
      "벨라": 2319,
      "테리어": 2320,
      "악세사리_팔찌_실버925": 2321,
      "패션잡화_패션소품_": 2322,
      "오뜨베베": 2323,
      "인테리어": 2324,
      "반팔티": 2325,
      "슈슈": 2326,
      "스포": 2327,
      "05": 2328,
      "틸다": 2329,
      "꽃_조화_조화": 2330,
      "ilver925": 2331,
      "블리": 2332,
      "마틸다": 2333,
      "밀크": 2334,
      "아동복_상의_니트": 2335,
      "부츠컷": 2336,
      "잡화_기타": 2337,
      "19": 2338,
      "925실버": 2339,
      "LE": 2340,
      "미미": 2341,
      "세라": 2342,
      "스마트": 2343,
      "벨벳": 2344,
      "크림": 2345,
      "07": 2346,
      "와플": 2347,
      "리아": 2348,
      "비즈": 2349,
      "앤리": 2350,
      "뷰티": 2351,
      "볼캡": 2352,
      "악세사리_피어싱_실버925": 2353,
      "꼬임": 2354,
      "크리": 2355,
      "플러": 2356,
      "래빗": 2357,
      "마틸다앤리": 2358,
      "레모": 2359,
      "06": 2360,
      "가죽": 2361,
      "메리": 2362,
      "베이직": 2363,
      "폴라": 2364,
      "바닐": 2365,
      "미용_": 2366,
      "로이": 2367,
      "코트": 2368,
      "슈즈": 2369,
      "스포츠": 2370,
      "리틀": 2371,
      "바닐라": 2372,
      "입고": 2373,
      "주방용품_주방": 2374,
      "월드": 2375,
      "핸드폰": 2376,
      "스텔": 2377,
      "스카": 2378,
      "악세사리_목걸이_기타": 2379,
      "바나": 2380,
      "소이": 2381,
      "샌들": 2382,
      "배기": 2383,
      "그린": 2384,
      "소이빈": 2385,
      "30": 2386,
      "17": 2387,
      "스마트톡": 2388,
      "몰리": 2389,
      "비비드": 2390,
      "유니": 2391,
      "수영": 2392,
      "지플라워": 2393,
      "조리": 2394,
      "ST": 2395,
      "숄더백": 2396,
      "밤비": 2397,
      "커프": 2398,
      "의류_남성": 2399,
      "플레이": 2400,
      "퍼프": 2401,
      "포장": 2402,
      "스트라이프": 2403,
      "로즈": 2404,
      "토트": 2405,
      "자마": 2406,
      "클로버": 2407,
      "브릭": 2408,
      "러블리": 2409,
      "아동복_기타_한복": 2410,
      "일시": 2411,
      "자동": 2412,
      "메탈": 2413,
      "일시품절": 2414,
      "파자마": 2415,
      "뽀뽀": 2416,
      "양이": 2417,
      "똑딱핀": 2418,
      "정품": 2419,
      "발레": 2420,
      "용품": 2421,
      "은반지": 2422,
      "고양이": 2423,
      "이지": 2424,
      "의류_여성하의_": 2425,
      "악세사리_목걸이_펜던트": 2426,
      "용기_컵": 2427,
      "월드모자": 2428,
      "](": 2429,
      "라임": 2430,
      "ic": 2431,
      "슬리": 2432,
      "밤비나": 2433,
      "클립": 2434,
      "바바": 2435,
      "벨라밤비나": 2436,
      "1세트": 2437,
      "라라랜드": 2438,
      "스톤": 2439,
      "바닐라버니": 2440,
      "애플": 2441,
      "그랑": 2442,
      "로우": 2443,
      "반려동물_패션_티셔츠": 2444,
      "머플러": 2445,
      "프로": 2446,
      "아동복_아동문구": 2447,
      "1개": 2448,
      "성사": 2449,
      "수영복": 2450,
      "토트백": 2451,
      "오픈": 2452,
      "크리스마": 2453,
      "SET": 2454,
      "캔디": 2455,
      "페이": 2456,
      "08": 2457,
      "에라": 2458,
      "패브릭": 2459,
      "버터": 2460,
      "체리": 2461,
      "에라토": 2462,
      "모델컷": 2463,
      "보니": 2464,
      "크리스마스": 2465,
      "뽀글": 2466,
      "스카프": 2467,
      "이니": 2468,
      "벨로": 2469,
      "에스": 2470,
      "인테리어소품": 2471,
      "피그": 2472,
      "엘리몰리": 2473,
      "패션잡화_여성": 2474,
      "패션잡화_여성신발_": 2475,
      "완구_": 2476,
      "개당": 2477,
      "나염": 2478,
      "마스크": 2479,
      "LED": 2480,
      "리오": 2481,
      "볼드": 2482,
      "도구": 2483,
      "공예_": 2484,
      "린도": 2485,
      "미정": 2486,
      "조리도구": 2487,
      "블랙빈": 2488,
      "09": 2489,
      "트레이": 2490,
      "티지": 2491,
      "긴소매": 2492,
      "그릇": 2493,
      "아동복_신발": 2494,
      "아동복_신발_기타": 2495,
      "발찌": 2496,
      "입고일": 2497,
      "보우": 2498,
      "의류_여성원피스": 2499,
      "플랫": 2500,
      "빈티지": 2501,
      "메이드": 2502,
      "우디": 2503,
      "뷰티미용_": 2504,
      "2종": 2505,
      "베스트": 2506,
      "부자재_포장": 2507,
      "파스텔": 2508,
      "앤블루": 2509,
      "캉캉": 2510,
      "크리스": 2511,
      "10개": 2512,
      "라임앤블루": 2513,
      "오버": 2514,
      "시계": 2515,
      "용기_그릇": 2516,
      "대성사": 2517,
      "슬리퍼": 2518,
      "카라티": 2519,
      "기본": 2520,
      "벤트": 2521,
      "마리": 2522,
      "조이": 2523,
      "악세사리_반지_세트": 2524,
      "하이바이": 2525,
      "하이바이베베": 2526,
      "레인보우": 2527,
      "미키": 2528,
      "이벤트": 2529,
      "미니코": 2530,
      "디오": 2531,
      "토리": 2532,
      "5x": 2533,
      "프리": 2534,
      "다이": 2535,
      "시티": 2536,
      "도미니코": 2537,
      "홀릭": 2538,
      "아동복_스포츠": 2539,
      "플레이트": 2540,
      "구니": 2541,
      "레스": 2542,
      "바라": 2543,
      "스트링": 2544,
      "장식소품": 2545,
      "일자": 2546,
      "바구니": 2547,
      "5부": 2548,
      "쥬얼리": 2549,
      "아동복_스포츠의류_": 2550,
      "블룸": 2551,
      "라이프_홈데코소품_이벤트": 2552,
      "스튜": 2553,
      "나그랑": 2554,
      "이어링": 2555,
      "귀찌": 2556,
      "모란": 2557,
      "Silver925": 2558,
      "23봄": 2559,
      "블링": 2560,
      "디세인트": 2561,
      "후드티": 2562,
      "3종": 2563,
      "스튜디오": 2564,
      "패션잡화_패션악세사리_브로치": 2565,
      "위드": 2566,
      "모빌": 2567,
      "누비": 2568,
      "악세사리_팔찌_체인": 2569,
      "레드": 2570,
      "부자재_포장부자재": 2571,
      "베이지": 2572,
      "리본핀": 2573,
      "도레도레": 2574,
      "밍크": 2575,
      "마망": 2576,
      "주얼리": 2577,
      "크리스탈": 2578,
      "플리": 2579,
      "족세트": 2580,
      "50": 2581,
      "마켓": 2582,
      "ss": 2583,
      "푸아": 2584,
      "웨이": 2585,
      "버스": 2586,
      "퀘어": 2587,
      "바나나": 2588,
      "씨엘": 2589,
      "공룡": 2590,
      "스퀘어": 2591,
      "셔링": 2592,
      "더블": 2593,
      "원형": 2594,
      "에코": 2595,
      "데이지": 2596,
      "푸아송": 2597,
      "투명": 2598,
      "지갑_숄더백": 2599,
      "치마바지": 2600,
      "여름신상": 2601,
      "용기_접시": 2602,
      "파티": 2603,
      "망사": 2604,
      "마카": 2605,
      "보리": 2606,
      "트리": 2607,
      "베베홀릭": 2608,
      "21": 2609,
      "야구": 2610,
      "씨엘드": 2611,
      "모어": 2612,
      "오리": 2613,
      "벨루": 2614,
      "월데코": 2615,
      "패션피어싱": 2616,
      "라이프_홈데코소품_모빌": 2617,
      "사이즈": 2618,
      "로라": 2619,
      "패브릭_": 2620,
      "리우": 2621,
      "어썸": 2622,
      "티니": 2623,
      "그립": 2624,
      "씨엘드마망": 2625,
      "빠빠": 2626,
      "네이드": 2627,
      "레모네이드": 2628,
      "고유": 2629,
      "악세사리_팔찌_기타": 2630,
      "셀룰": 2631,
      "의류_여성상의_파자마": 2632,
      "우비": 2633,
      "고무": 2634,
      "블룸비": 2635,
      "자동핀": 2636,
      "캐릭": 2637,
      "도라": 2638,
      "가드": 2639,
      "테이": 2640,
      "커즈": 2641,
      "칼라": 2642,
      "이지아이": 2643,
      "보석": 2644,
      "플리츠": 2645,
      "반소매": 2646,
      "해피": 2647,
      "레브": 2648,
      "그립톡": 2649,
      "캐릭터": 2650,
      "의류_여성아우터_": 2651,
      "라이프_문구": 2652,
      "산리오": 2653,
      "주방용품_주방조리도구": 2654,
      "완구_문구": 2655,
      "벨루베베": 2656,
      "블루머": 2657,
      "받침": 2658,
      "가을신상": 2659,
      "주방용품_주방조리도구_": 2660,
      "페도라": 2661,
      "in": 2662,
      "글라스": 2663,
      "실버반지": 2664,
      "크로스백": 2665,
      "장미": 2666,
      "핀턱": 2667,
      "보니토": 2668,
      "이니키즈": 2669,
      "7부": 2670,
      "3종세트": 2671,
      "런치": 2672,
      "비비드아이": 2673,
      "al": 2674,
      "타원": 2675,
      "니삭스": 2676,
      "미뇽": 2677,
      "셋트": 2678,
      "베리베리": 2679,
      "은침귀걸이": 2680,
      "몽베베": 2681,
      "28": 2682,
      "매트": 2683,
      "먼트": 2684,
      "JU": 2685,
      "아노": 2686,
      "네네": 2687,
      "아이아이": 2688,
      "비츠": 2689,
      "네네루": 2690,
      "앙뜨": 2691,
      "헤이": 2692,
      "아동복_기타_홈웨어": 2693,
      "마레": 2694,
      "누빔": 2695,
      "성인": 2696,
      "제제": 2697,
      "크롭티": 2698,
      "로아": 2699,
      "케이스": 2700,
      "하프": 2701,
      "SA": 2702,
      "26": 2703,
      "아오": 2704,
      "PT": 2705,
      "러리": 2706,
      "젤리": 2707,
      "도리": 2708,
      "패션잡화_모자_벙거지": 2709,
      "코스": 2710,
      "신발악세사리": 2711,
      "에코백": 2712,
      "27": 2713,
      "보보": 2714,
      "패션잡화_패션악세사리_신발악세사리": 2715,
      "귀족": 2716,
      "하우스": 2717,
      "뮤르": 2718,
      "33": 2719,
      "29": 2720,
      "셋업": 2721,
      "앤쁘띠": 2722,
      "쁘띠앤쁘띠": 2723,
      "누누비": 2724,
      "누누비엘": 2725,
      "삼각": 2726,
      "허니": 2727,
      "앙뜨제이": 2728,
      "소년": 2729,
      "4종": 2730,
      "포크": 2731,
      "여아": 2732,
      "긴팔": 2733,
      "네오": 2734,
      "맹이": 2735,
      "아노락": 2736,
      "드레스": 2737,
      "식품_": 2738,
      "나무": 2739,
      "커트러리": 2740,
      "가능": 2741,
      "스틱": 2742,
      "지비츠": 2743,
      "악세사리_피어싱_패션피어싱": 2744,
      "마이베베": 2745,
      "꼬맹이": 2746,
      "스크림": 2747,
      "나팔": 2748,
      "팬던트": 2749,
      "아오스타": 2750,
      "상회": 2751,
      "te": 2752,
      "귀족피어싱": 2753,
      "콤마": 2754,
      "5족세트": 2755,
      "뉴월드모자": 2756,
      "아이스크림": 2757,
      "믹스": 2758,
      "아동복_하의_기타": 2759,
      "브라운": 2760,
      "올리": 2761,
      "프트": 2762,
      "썬캡": 2763,
      "트위드": 2764,
      "무지개": 2765,
      "여우비": 2766,
      "샤샤": 2767,
      "OP": 2768,
      "꼬리": 2769,
      "악세사리_귀걸이_커프": 2770,
      "슈가": 2771,
      "미미상회": 2772,
      "의류_남성상의_": 2773,
      "워싱": 2774,
      "절개": 2775,
      "바이엠": 2776,
      "딸기": 2777,
      "트임": 2778,
      "el": 2779,
      "마마": 2780,
      "35": 2781,
      "제니": 2782,
      "폴라티": 2783,
      "무광": 2784,
      "미앙": 2785,
      "네일": 2786,
      "미앙블룸비": 2787,
      "커플": 2788,
      "거울": 2789,
      "야구모자": 2790,
      "부자재_기타": 2791,
      "18k": 2792,
      "가지": 2793,
      "라이프_홈": 2794,
      "제인": 2795,
      "피치": 2796,
      "2color": 2797,
      "스탠": 2798,
      "씨티": 2799,
      "비바": 2800,
      "이비": 2801,
      "의류_여성상의_긴소매": 2802,
      "주소년": 2803,
      "스크런치": 2804,
      "블랑": 2805,
      "타이": 2806,
      "뱅글": 2807,
      "밴딩": 2808,
      "트라": 2809,
      "레터": 2810,
      "롱원피스": 2811,
      "메쉬": 2812,
      "메신": 2813,
      "플로": 2814,
      "92": 2815,
      "클래": 2816,
      "단가라티": 2817,
      "열쇠": 2818,
      "ra": 2819,
      "메신저": 2820,
      "튤립": 2821,
      "스티치": 2822,
      "아동복_스포츠의류_수영복": 2823,
      "악세사리_기타": 2824,
      "45": 2825,
      "스파": 2826,
      "5종세트": 2827,
      "인조": 2828,
      "메신저백": 2829,
      "재주소년": 2830,
      "스티커": 2831,
      "메리고": 2832,
      "메리고라운드": 2833,
      "패션잡화_모자_캡": 2834,
      "2개": 2835,
      "5종": 2836,
      "파인": 2837,
      "시스": 2838,
      "보네오": 2839,
      "보네오네": 2840,
      "자개": 2841,
      "악세사리_귀걸이_써지컬": 2842,
      "라이트": 2843,
      "공주": 2844,
      "수납": 2845,
      "지안": 2846,
      "도금": 2847,
      "아워": 2848,
      "엠키즈": 2849,
      "키티": 2850,
      "헬로": 2851,
      "인형_": 2852,
      "지갑_크로스": 2853,
      "투톤": 2854,
      "지안클로버": 2855,
      "클래식": 2856,
      "보보제이": 2857,
      "울트라": 2858,
      "00원": 2859,
      "SS": 2860,
      "뽀뽀뽀": 2861,
      "용도": 2862,
      "라이키": 2863,
      "악세사리_귀걸이_세트": 2864,
      "마이카": 2865,
      "뽀글이": 2866,
      "미라이키": 2867,
      "바람": 2868,
      "에폭": 2869,
      "36": 2870,
      "cu": 2871,
      "머니": 2872,
      "버킷햇": 2873,
      "로브": 2874,
      "랄라": 2875,
      "스케": 2876,
      "원석": 2877,
      "**": 2878,
      "구름": 2879,
      "슬림": 2880,
      "장안": 2881,
      "호마이카": 2882,
      "레어": 2883,
      "5개": 2884,
      "신주": 2885,
      "키키": 2886,
      "프렌": 2887,
      "치랭": 2888,
      "34": 2889,
      "니스": 2890,
      "우디베베": 2891,
      "다용도": 2892,
      "에이마켓": 2893,
      "애니": 2894,
      "ur": 2895,
      "울트라짱": 2896,
      "담수": 2897,
      "모던": 2898,
      "마이삭스": 2899,
      "유니크": 2900,
      "어썸베베": 2901,
      "스왈": 2902,
      "캔버스": 2903,
      "ml": 2904,
      "이스": 2905,
      "100": 2906,
      "라벨": 2907,
      "앤드": 2908,
      "레터링": 2909,
      "장안사": 2910,
      "팬티": 2911,
      "코스튬": 2912,
      "버튼": 2913,
      "악세사리_기타_기타": 2914,
      "후리스": 2915,
      "두줄": 2916,
      "인치": 2917,
      "파우치백": 2918,
      "아일": 2919,
      "아동복_아우터_기타": 2920,
      "silver925": 2921,
      "Bra": 2922,
      "양털": 2923,
      "파우더": 2924,
      "스프": 2925,
      "꽈배기": 2926,
      "하트베이비": 2927,
      "teel": 2928,
      "이어커프": 2929,
      "메이": 2930,
      "고무줄": 2931,
      "베이비잼": 2932,
      "지갑_파우치": 2933,
      "리틀티니": 2934,
      "물방울": 2935,
      "용기_커트러리": 2936,
      "핸드메이드": 2937,
      "비치": 2938,
      "수건": 2939,
      "단추": 2940,
      "카고팬츠": 2941,
      "남아": 2942,
      "뷰티미용_주얼리": 2943,
      "뷰티미용_주얼리소품_": 2944,
      "웨이브": 2945,
      "베레모": 2946,
      "40": 2947,
      "플랜": 2948,
      "열두": 2949,
      "씨티모자": 2950,
      "토니": 2951,
      "우노": 2952,
      "오로라": 2953,
      "칩스": 2954,
      "이루": 2955,
      "bic": 2956,
      "민소매": 2957,
      "초코": 2958,
      "뉴욕": 2959,
      "브라스": 2960,
      "액자": 2961,
      "점프": 2962,
      "1종": 2963,
      "러스": 2964,
      "니니": 2965,
      "원팩": 2966,
      "로미": 2967,
      "와이드팬츠": 2968,
      "제제우노": 2969,
      "오누": 2970,
      "스타킹": 2971,
      "무늬": 2972,
      "제제우노시티": 2973,
      "Brass": 2974,
      "gic": 2975,
      "런던": 2976,
      "하이비바": 2977,
      "urgic": 2978,
      "urgical": 2979,
      "민트": 2980,
      "주머니": 2981,
      "cubic": 2982,
      "37": 2983,
      "키치": 2984,
      "바나나제이": 2985,
      "인원": 2986,
      "포크칩스": 2987,
      "라이프_홈데코소품_수납": 2988,
      "아동복_아우터_코트": 2989,
      "열쇠고리": 2990,
      "ing": 2991,
      "박스": 2992,
      "맨투맨티": 2993,
      "마로": 2994,
      "Steel": 2995,
      "Surgical": 2996,
      "바로": 2997,
      "조아": 2998,
      "스케치": 2999,
      "pe": 3000,
      "뜨개": 3001,
      "밀리": 3002,
      "벨트": 3003,
      "쟁이": 3004,
      "마레한복": 3005,
      "브루": 3006,
      "선글라스": 3007,
      "코스튬쥬얼리": 3008,
      "봄신상": 3009,
      "올인원": 3010,
      "후드집업": 3011,
      "st": 3012,
      "패치": 3013,
      "아이보리": 3014,
      "드림": 3015,
      "아이다": 3016,
      "22겨울": 3017,
      "워터": 3018,
      "39": 3019,
      "BT": 3020,
      "백팩": 3021,
      "열두달": 3022,
      "케이프": 3023,
      "바니": 3024,
      "유리": 3025,
      "가방고리": 3026,
      "양면": 3027,
      "츄러스": 3028,
      "홀더": 3029,
      "프롬": 3030,
      "반짝": 3031,
      "테일": 3032,
      "악세사리_발찌": 3033,
      "의류_여성상의_니트": 3034,
      "랍빠": 3035,
      "오스트": 3036,
      "다조아": 3037,
      "오스트리아": 3038,
      "38": 3039,
      "볼륨": 3040,
      "다제이": 3041,
      "르르": 3042,
      "바스": 3043,
      "언발": 3044,
      "오웬": 3045,
      "바오": 3046,
      "000": 3047,
      "아일렛": 3048,
      "산타": 3049,
      "밀크베베": 3050,
      "건빵": 3051,
      "크림빵": 3052,
      "워머": 3053,
      "텔라": 3054,
      "목도리": 3055,
      "초커": 3056,
      "테디": 3057,
      "모리": 3058,
      "피카": 3059,
      "니커즈": 3060,
      "알라": 3061,
      "루즈": 3062,
      "라이프_홈패브릭_": 3063,
      "발레복": 3064,
      "작은": 3065,
      "니니벨로": 3066,
      "조거바지": 3067,
      "우드": 3068,
      "벌룬": 3069,
      "세컨": 3070,
      "구마": 3071,
      "베이비슈": 3072,
      "고구마": 3073,
      "멀티": 3074,
      "라스텔라": 3075,
      "막이": 3076,
      "페퍼": 3077,
      "로퍼": 3078,
      "통통": 3079,
      "아동복_베이비_기타": 3080,
      "스케치북": 3081,
      "큐티": 3082,
      "컷팅": 3083,
      "더랄라": 3084,
      "투피스": 3085,
      "화이트스케치북": 3086,
      "헤어집게핀": 3087,
      "미니봉봉": 3088,
      "바람막이": 3089,
      "32": 3090,
      "보드": 3091,
      "그루": 3092,
      "이중": 3093,
      "허그": 3094,
      "귀여": 3095,
      "스니커즈": 3096,
      "은귀걸이": 3097,
      "바바미뇽": 3098,
      "랙스": 3099,
      "인형키링": 3100,
      "마벨": 3101,
      "브이": 3102,
      "퍼프티": 3103,
      "더고구마": 3104,
      "바라기": 3105,
      "비앙": 3106,
      "엔틱": 3107,
      "해바라기": 3108,
      "악세사리_반지_기타": 3109,
      "잡화": 3110,
      "친구": 3111,
      "치랭스": 3112,
      "담수진주": 3113,
      "46": 3114,
      "소프트": 3115,
      "47": 3116,
      "두리": 3117,
      "브라": 3118,
      "스프링": 3119,
      "라쿠": 3120,
      "마니": 3121,
      "로다제이": 3122,
      "코튼팬츠": 3123,
      "덴덴": 3124,
      "물결": 3125,
      "슬랙스": 3126,
      "화병": 3127,
      "골드14": 3128,
      "퀼팅": 3129,
      "코듀": 3130,
      "귀여운": 3131,
      "니트가디건": 3132,
      "아모": 3133,
      "오버롤": 3134,
      "악세사리_목걸이_롱": 3135,
      "농산": 3136,
      "럭셔": 3137,
      "실리": 3138,
      "써클": 3139,
      "라리": 3140,
      "미니어": 3141,
      "오트": 3142,
      "실버귀걸이": 3143,
      "매듭": 3144,
      "셀룰로": 3145,
      "모니": 3146,
      "HB": 3147,
      "가든": 3148,
      "로그": 3149,
      "쪼리": 3150,
      "라고": 3151,
      "미디": 3152,
      "한스": 3153,
      "실리콘": 3154,
      "다이아": 3155,
      "사이트": 3156,
      "마블": 3157,
      "성은": 3158,
      "캡모자": 3159,
      "의류_여성상의_반소매": 3160,
      "쥬쥬피어싱": 3161,
      "페이퍼": 3162,
      "바로와": 3163,
      "RK": 3164,
      "스모": 3165,
      "151": 3166,
      "마카사이트": 3167,
      "아모르": 3168,
      "송이": 3169,
      "테니스": 3170,
      "나시티": 3171,
      "강아지옷": 3172,
      "럭셔리": 3173,
      "아티": 3174,
      "PC": 3175,
      "사이드": 3176,
      "ype": 3177,
      "48": 3178,
      "5cm": 3179,
      "고쟁이": 3180,
      "버블": 3181,
      "리본티": 3182,
      "마벨라라": 3183,
      "롱티": 3184,
      "31": 3185,
      "NRK": 3186,
      "보넷세트": 3187,
      "국내": 3188,
      "버디": 3189,
      "미리": 3190,
      "소유": 3191,
      "프린": 3192,
      "캔들": 3193,
      "LA": 3194,
      "로렌": 3195,
      "보석함": 3196,
      "멜로": 3197,
      "슈에": 3198,
      "패션잡화_패션소품_양말": 3199,
      "밀크밤": 3200,
      "에이모어": 3201,
      "모스": 3202,
      "샤인": 3203,
      "토마": 3204,
      "부엉": 3205,
      "청팬츠": 3206,
      "지갑_에코백": 3207,
      "이사": 3208,
      "거치": 3209,
      "트로": 3210,
      "101": 3211,
      "베베브루": 3212,
      "카드": 3213,
      "에끌": 3214,
      "포스트": 3215,
      "베베브루니": 3216,
      "원터치귀걸이": 3217,
      "도레미": 3218,
      "부엉이": 3219,
      "1쌍": 3220,
      "HH": 3221,
      "천연": 3222,
      "에이블": 3223,
      "인조가죽": 3224,
      "덧신": 3225,
      "숏팬츠": 3226,
      "쉬폰": 3227,
      "파츠": 3228,
      "아이스": 3229,
      "안경": 3230,
      "마린": 3231,
      "토이": 3232,
      "거치대": 3233,
      "에끌레어": 3234,
      "나인": 3235,
      "알라딘": 3236,
      "레더": 3237,
      "나그랑티": 3238,
      "오트밀": 3239,
      "달라": 3240,
      "패턴": 3241,
      "그로": 3242,
      "리카": 3243,
      "마스크스트랩": 3244,
      "패션잡화_패션소품_머플러": 3245,
      "네모": 3246,
      "퍼피": 3247,
      "릴리": 3248,
      "유아": 3249,
      "클라": 3250,
      "로빈": 3251,
      "준이사": 3252,
      "OPS": 3253,
      "준이사칠": 3254,
      "에르": 3255,
      "모모": 3256,
      "사탕": 3257,
      "옐로우": 3258,
      "세일러": 3259,
      "피카부": 3260,
      "손수건": 3261,
      "슈크림": 3262,
      "코듀로이": 3263,
      "스팽": 3264,
      "과일": 3265,
      "로하": 3266,
      "스키": 3267,
      "오와": 3268,
      "팀앤드": 3269,
      "피그먼트": 3270,
      "멜리스": 3271,
      "오르": 3272,
      "슈에뜨": 3273,
      "브로디": 3274,
      "iz": 3275,
      "쏘잉": 3276,
      "호박": 3277,
      "3color": 3278,
      "레오": 3279,
      "그레이": 3280,
      "박스티": 3281,
      "쿠션": 3282,
      "플랜제이": 3283,
      "파이": 3284,
      "쏘잉비": 3285,
      "날라리": 3286,
      "블루틴": 3287,
      "워커": 3288,
      "꽃_부자재_": 3289,
      "세인트돌": 3290,
      "44": 3291,
      "무드": 3292,
      "코스터": 3293,
      "브로디제인": 3294,
      "주름스커트": 3295,
      "트레이닝": 3296,
      "토마토": 3297,
      "앤초": 3298,
      "구구": 3299,
      "뷔스티": 3300,
      "ize": 3301,
      "통바지": 3302,
      "하모니": 3303,
      "검정": 3304,
      "미디원피스": 3305,
      "김앤초": 3306,
      "라미": 3307,
      "아가": 3308,
      "비앙조이": 3309,
      "43": 3310,
      "앙꼬": 3311,
      "얌체": 3312,
      "페어": 3313,
      "퍼니": 3314,
      "뷔스티에": 3315,
      "꾸미": 3316,
      "디퓨": 3317,
      "주방용품_주방용품_": 3318,
      "배색티": 3319,
      "세트_미니": 3320,
      "리우리우": 3321,
      "스모크": 3322,
      "날개": 3323,
      "아동복_상의_기타": 3324,
      "링귀걸이": 3325,
      "10개세트": 3326,
      "size": 3327,
      "1P": 3328,
      "구슬": 3329,
      "릴라": 3330,
      "베베나인": 3331,
      "엔젤": 3332,
      "자석": 3333,
      "미니어처": 3334,
      "오르골": 3335,
      "패션잡화_여성신발_샌들": 3336,
      "그루바바": 3337,
      "워니": 3338,
      "200": 3339,
      "푸딩": 3340,
      "2_": 3341,
      "민자": 3342,
      "악세사리_팔찌_뱅글": 3343,
      "뮤르뮤르": 3344,
      "몽콕": 3345,
      "가락": 3346,
      "수면": 3347,
      "왕관": 3348,
      "디퓨저": 3349,
      "바이미미": 3350,
      "새로빈": 3351,
      "세븐": 3352,
      "라이프_공예": 3353,
      "모스베베": 3354,
      "구구키즈": 3355,
      "라이프_공예품_": 3356,
      "60": 3357,
      "땡땡": 3358,
      "마이쮸": 3359,
      "부츠컷팬츠": 3360,
      "49": 3361,
      "디즈": 3362,
      "할로": 3363,
      "봉투": 3364,
      "쁘띠워니": 3365,
      "싱글": 3366,
      "벨로아": 3367,
      "허그베베": 3368,
      "쿠키": 3369,
      "이너": 3370,
      "장난": 3371,
      "미니로브": 3372,
      "라이프_홈데코소품_캔들": 3373,
      "양기모": 3374,
      "폼폼": 3375,
      "호피": 3376,
      "55": 3377,
      "pt": 3378,
      "디즈니": 3379,
      "마루": 3380,
      "제이룸": 3381,
      "바나다": 3382,
      "헤이리": 3383,
      "4종세트": 3384,
      "덤블": 3385,
      "미끼": 3386,
      "14k": 3387,
      "지지": 3388,
      "모자세트": 3389,
      "의류_남성하의_": 3390,
      "오투": 3391,
      "CC": 3392,
      "로고": 3393,
      "엘로": 3394,
      "코튼하우스": 3395,
      "프로아이": 3396,
      "의류_여성하의_코튼팬츠": 3397,
      "장난감": 3398,
      "니켈": 3399,
      "체커": 3400,
      "냄비": 3401,
      "에어": 3402,
      "지퍼": 3403,
      "마론": 3404,
      "SALE": 3405,
      "꼬리별": 3406,
      "니아": 3407,
      "디스": 3408,
      "밀짚": 3409,
      "영희": 3410,
      "철수": 3411,
      "유니콘": 3412,
      "귀달": 3413,
      "나이스": 3414,
      "리즈": 3415,
      "철수와": 3416,
      "글리": 3417,
      "노바": 3418,
      "모이비": 3419,
      "원목": 3420,
      "오픈링": 3421,
      "스탠드": 3422,
      "런던아이": 3423,
      "모이비엔": 3424,
      "골지레깅스": 3425,
      "에이블샵": 3426,
      "type": 3427,
      "앞치마": 3428,
      "포함": 3429,
      "철수와영희": 3430,
      "우산": 3431,
      "포즈": 3432,
      "악세사리_팔찌_써지컬": 3433,
      "버터컵": 3434,
      "오버핏": 3435,
      "세계": 3436,
      "마마스파": 3437,
      "마마스파파": 3438,
      "매쉬": 3439,
      "은목걸이": 3440,
      "마카롱": 3441,
      "동글": 3442,
      "무니켈": 3443,
      "케이원": 3444,
      "쉬가드": 3445,
      "제르": 3446,
      "피에르": 3447,
      "스푼": 3448,
      "코어": 3449,
      "리스트": 3450,
      "비아": 3451,
      "본네": 3452,
      "핑크151": 3453,
      "5호": 3454,
      "로프": 3455,
      "앤틱": 3456,
      "42": 3457,
      "선물": 3458,
      "백프로": 3459,
      "빅사이즈": 3460,
      "십자": 3461,
      "아이짱": 3462,
      "라이프_홈데코소품_트레이": 3463,
      "2P": 3464,
      "SPC": 3465,
      "모달": 3466,
      "NY": 3467,
      "새틴": 3468,
      "플레인": 3469,
      "2p": 3470,
      "MT": 3471,
      "워터볼": 3472,
      "드리": 3473,
      "랜덤": 3474,
      "메인": 3475,
      "프릴티": 3476,
      "알파": 3477,
      "골지티": 3478,
      "반려동물_패션_원피스": 3479,
      "아티클": 3480,
      "할로윈": 3481,
      "3단": 3482,
      "오프": 3483,
      "구루": 3484,
      "의류_여성상의_민소매": 3485,
      "우리": 3486,
      "우에": 3487,
      "우에오": 3488,
      "스네일": 3489,
      "반려동물_패션_자켓": 3490,
      "조이엘로": 3491,
      "악세사리_발찌_": 3492,
      "리키즈": 3493,
      "입체": 3494,
      "라라봉봉": 3495,
      "ea": 3496,
      "마시": 3497,
      "프렌즈": 3498,
      "SK": 3499,
      "on": 3500,
      "엠스네일": 3501,
      "제이엠스네일": 3502,
      "렌지": 3503,
      "이시스": 3504,
      "뮤뮤": 3505,
      "샤넬": 3506,
      "소녀": 3507,
      "악세사리_목걸이_초커": 3508,
      "프로포즈": 3509,
      "뷰티미용_주얼리소품_반지": 3510,
      "귀달이": 3511,
      "코코래빗": 3512,
      "네이": 3513,
      "백프로코튼": 3514,
      "생활": 3515,
      "클리": 3516,
      "스노": 3517,
      "프레": 3518,
      "고급": 3519,
      "88": 3520,
      "미들": 3521,
      "스몰": 3522,
      "시크": 3523,
      "아기": 3524,
      "라노": 3525,
      "튜튜": 3526,
      "스웨이드": 3527,
      "클라바": 3528,
      "신세계": 3529,
      "슈트세트": 3530,
      "베어티": 3531,
      "아동복_스포츠의류_발레복": 3532,
      "41": 3533,
      "오렌지": 3534,
      "나염티": 3535,
      "SN": 3536,
      "가공": 3537,
      "낱장": 3538,
      "눈꽃": 3539,
      "키홀더": 3540,
      "라이프_실내": 3541,
      "라이프_실내인테리어": 3542,
      "EE": 3543,
      "쥬디": 3544,
      "신세계키즈": 3545,
      "라탄": 3546,
      "래쉬가드": 3547,
      "어반": 3548,
      "응피어싱": 3549,
      "큐브": 3550,
      "프롬제이": 3551,
      "2단": 3552,
      "리티": 3553,
      "와이": 3554,
      "끈나시": 3555,
      "패션잡화_패션악세사리_마스크": 3556,
      "15호": 3557,
      "SR": 3558,
      "ring": 3559,
      "돌프": 3560,
      "버킷리스트": 3561,
      "마마미": 3562,
      "냥이": 3563,
      "코튼캔디": 3564,
      "6종": 3565,
      "블러": 3566,
      "아미": 3567,
      "와이어": 3568,
      "악세사리_목걸이_세트": 3569,
      "글리터": 3570,
      "1봉": 3571,
      "말랑": 3572,
      "몬스터": 3573,
      "유광": 3574,
      "라이프_홈데코소품_액자": 3575,
      "타올": 3576,
      "테잎": 3577,
      "미니준": 3578,
      "꾸미기": 3579,
      "낱장가능": 3580,
      "엘사": 3581,
      "오호": 3582,
      "우주": 3583,
      "24겨울": 3584,
      "뉴피에르": 3585,
      "루돌프": 3586,
      "밀키": 3587,
      "본딩": 3588,
      "직사각": 3589,
      "돌핀": 3590,
      "시보리": 3591,
      "10x": 3592,
      "십자가": 3593,
      "반집업": 3594,
      "엠보": 3595,
      "바라클라바": 3596,
      "우르르": 3597,
      "꽃_부자재_화병": 3598,
      "op": 3599,
      "보이": 3600,
      "머리집게핀": 3601,
      "패션잡화_패션소품_손수건": 3602,
      "스텔라": 3603,
      "파인스튜디오": 3604,
      "부쉬": 3605,
      "슬립": 3606,
      "화로": 3607,
      "모닝": 3608,
      "윙클": 3609,
      "디그린": 3610,
      "모노": 3611,
      "여행": 3612,
      "테이블": 3613,
      "네온": 3614,
      "악어": 3615,
      "하이키키": 3616,
      "제르메인": 3617,
      "스노우": 3618,
      "BL": 3619,
      "더퍼니": 3620,
      "잔꽃": 3621,
      "버니테일": 3622,
      "테이프": 3623,
      "둥근": 3624,
      "스쿨": 3625,
      "왕리본": 3626,
      "슈퍼": 3627,
      "오아": 3628,
      "실내화": 3629,
      "친구들": 3630,
      "레트로": 3631,
      "퍼스트": 3632,
      "애니멀": 3633,
      "땡땡이": 3634,
      "MTM": 3635,
      "파티키즈": 3636,
      "노트": 3637,
      "서현": 3638,
      ")(": 3639,
      "치즈": 3640,
      "파티베베": 3641,
      "곰티": 3642,
      "보들": 3643,
      "아리": 3644,
      "에스엠": 3645,
      "허니팟": 3646,
      "의류_여성아우터_자켓": 3647,
      "점프수트": 3648,
      "모음": 3649,
      "모형": 3650,
      "리본집게핀": 3651,
      "에스엠투": 3652,
      "당근": 3653,
      "발매트": 3654,
      "보나": 3655,
      "부틱": 3656,
      "봉봉부틱": 3657,
      "주방용품_주방용품_코스터": 3658,
      "7단": 3659,
      "묶음": 3660,
      "블링블링": 3661,
      "주방용품_주방조리도구_조리도구": 3662,
      "네스": 3663,
      "다원": 3664,
      "공용": 3665,
      "쓰리": 3666,
      "패션잡화_패션악세사리_시계": 3667,
      "미니포인트": 3668,
      "80": 3669,
      "형광": 3670,
      "그로아": 3671,
      "러빈": 3672,
      "베비": 3673,
      "트윙클": 3674,
      "헤어끈": 3675,
      "마니샵": 3676,
      "로로": 3677,
      "롱스커트": 3678,
      "비닐": 3679,
      "팩토리": 3680,
      "로그101": 3681,
      "스마일티": 3682,
      "우리두리": 3683,
      "인기": 3684,
      "하나": 3685,
      "14K": 3686,
      "패션잡화_여성신발_운동화": 3687,
      "리버": 3688,
      "애플스마일": 3689,
      "65": 3690,
      "70": 3691,
      "러쉬": 3692,
      "물_": 3693,
      "위위": 3694,
      "프런": 3695,
      "트렌": 3696,
      "파파": 3697,
      "수입": 3698,
      "지니": 3699,
      "피너": 3700,
      "슈슈샤샤": 3701,
      "완구_장난감": 3702,
      "구제": 3703,
      "두건": 3704,
      "퍼스트블루": 3705,
      "청반바지": 3706,
      "코스타": 3707,
      "피크": 3708,
      "22가을": 3709,
      "시스루": 3710,
      "드림캐": 3711,
      "러그": 3712,
      "빅뱅": 3713,
      "호두": 3714,
      "동전": 3715,
      "바비": 3716,
      "오아후": 3717,
      "BB": 3718,
      "닉스": 3719,
      "리나": 3720,
      "리본머리띠": 3721,
      "카라맨투맨": 3722,
      "바다": 3723,
      "스타일": 3724,
      "레인보우삭스": 3725,
      "바스락": 3726,
      "8x": 3727,
      "손잡": 3728,
      "세트_롱원피스": 3729,
      "75": 3730,
      "짱구": 3731,
      "XL": 3732,
      "레몬": 3733,
      ")-": 3734,
      "하마로": 3735,
      "에이프런": 3736,
      "버니파우더": 3737,
      "라슈슈": 3738,
      "티추가": 3739,
      "고래": 3740,
      "그니": 3741,
      "꿈베비": 3742,
      "플래": 3743,
      "가공품": 3744,
      "오간": 3745,
      "스팽글": 3746,
      "카페": 3747,
      "드래": 3748,
      "즐링": 3749,
      "필통": 3750,
      "의류_뷰티": 3751,
      "셜리": 3752,
      "ops": 3753,
      "랑이": 3754,
      "앤바바": 3755,
      "에스에스": 3756,
      "뮤뮤앤바바": 3757,
      "드래곤": 3758,
      "다즐링": 3759,
      "어텀": 3760,
      "핸드폰줄": 3761,
      "네임": 3762,
      "딜라이트": 3763,
      "베어맨투맨": 3764,
      "85": 3765,
      "레나": 3766,
      "브리": 3767,
      "특가": 3768,
      "피아": 3769,
      "데일리베베": 3770,
      "캉캉스커트": 3771,
      "66": 3772,
      "소보": 3773,
      "화이트베어": 3774,
      "pa": 3775,
      "파리": 3776,
      "1000": 3777,
      "77": 3778,
      "네이비": 3779,
      "더나": 3780,
      "칸투": 3781,
      "칸투치": 3782,
      "푸들": 3783,
      "카라원피스": 3784,
      "윈터": 3785,
      "하나비": 3786,
      "의류_남성아우터_": 3787,
      "세븐틴": 3788,
      "TEE": 3789,
      "그린토마토": 3790,
      "드림캐쳐": 3791,
      "칸투치스튜디오": 3792,
      "공단": 3793,
      "르앙": 3794,
      "솜사탕": 3795,
      "앤셜리": 3796,
      "라이프_생활": 3797,
      "라이프_생활용품_": 3798,
      "E실버925": 3799,
      "꼬꼬": 3800,
      "리얼": 3801,
      "의류_여성상의_맨투맨": 3802,
      "원단": 3803,
      "텀블러": 3804,
      "하네스": 3805,
      "더나은": 3806,
      "AB": 3807,
      "드파파": 3808,
      "썬데이": 3809,
      "스판팬츠": 3810,
      "스와": 3811,
      "ET": 3812,
      "코스타노바": 3813,
      "300": 3814,
      "밀라노": 3815,
      "멜빵바지": 3816,
      "발레코어": 3817,
      "레빗": 3818,
      "백참": 3819,
      "청자켓": 3820,
      "투웨이": 3821,
      "스냅": 3822,
      "실핀": 3823,
      "커피": 3824,
      "2colors": 3825,
      "손잡이": 3826,
      "산책": 3827,
      "수저": 3828,
      "다드": 3829,
      "스텐": 3830,
      "오조": 3831,
      "코끼": 3832,
      "레이스원피스": 3833,
      "지갑_지갑": 3834,
      "자동차": 3835,
      "루즈핏": 3836,
      "셀룰로이드": 3837,
      "의류_남성하의_데님팬츠": 3838,
      "4개": 3839,
      "56": 3840,
      "킨토": 3841,
      "니트조끼": 3842,
      "오조드파파": 3843,
      "부터": 3844,
      "오스": 3845,
      "블루코코": 3846,
      "기능": 3847,
      "사무": 3848,
      "오닉스": 3849,
      "소보루": 3850,
      "구리": 3851,
      "이동": 3852,
      "퍼플": 3853,
      "여자": 3854,
      "베러": 3855,
      "나팔팬츠": 3856,
      "부클": 3857,
      "비엔": 3858,
      "악세사리_반지_써지컬": 3859,
      "3P": 3860,
      "퓨어": 3861,
      "6x": 3862,
      "KR": 3863,
      "ag": 3864,
      "글로": 3865,
      "목줄": 3866,
      "단화": 3867,
      "덜트": 3868,
      "얼굴": 3869,
      "이룸": 3870,
      "세미": 3871,
      "라이스": 3872,
      "국내제작": 3873,
      "물병": 3874,
      "하트티": 3875,
      "라이프_홈데코소품_시계": 3876,
      "램프": 3877,
      "사선": 3878,
      "앤아이": 3879,
      "츄럴": 3880,
      "나잇": 3881,
      "자가드": 3882,
      "메탈집게핀": 3883,
      "블루틴주니어": 3884,
      "피크닉": 3885,
      "FW": 3886,
      "sh": 3887,
      "꼬마": 3888,
      "요루": 3889,
      "식품_농산": 3890,
      "점프슈트": 3891,
      "000원": 3892,
      "식품_농산물_": 3893,
      "딱핀": 3894,
      "신꾸": 3895,
      "삭스세트": 3896,
      "15x": 3897,
      "농산가공품": 3898,
      "악세사리_발찌_체인": 3899,
      "식품_농산물_농산가공품": 3900,
      "89": 3901,
      "상자": 3902,
      "안나": 3903,
      "레이스티": 3904,
      "멜빵팬츠": 3905,
      "앨리스": 3906,
      "베베나인베베": 3907,
      "알파벳": 3908,
      "랑한복": 3909,
      "삐삐": 3910,
      "20x": 3911,
      "프렌치": 3912,
      "BJ": 3913,
      "pp": 3914,
      "도넛": 3915,
      "펀칭": 3916,
      "풍선": 3917,
      "헤어슈슈": 3918,
      "레이어드티": 3919,
      "N실버925": 3920,
      "럭키": 3921,
      "시나": 3922,
      ")]": 3923,
      "79": 3924,
      "나팔바지": 3925,
      "곱창끈": 3926,
      "MM": 3927,
      "가발": 3928,
      "주문가능": 3929,
      "포인트핀": 3930,
      "미미코": 3931,
      "Silver": 3932,
      "모먼트": 3933,
      "플루": 3934,
      "프리사이즈": 3935,
      "76": 3936,
      "냉장": 3937,
      "무도금": 3938,
      "부팬츠": 3939,
      "포트": 3940,
      "푸이": 3941,
      "미니스커트": 3942,
      "스탠다드": 3943,
      "에린": 3944,
      "하랑한복": 3945,
      "라미지니": 3946,
      "냉장고": 3947,
      "모직": 3948,
      "스엔": 3949,
      "악세사리_피어싱_골드14": 3950,
      "펌킨": 3951,
      "체인팔찌": 3952,
      "골덴팬츠": 3953,
      "아쿠": 3954,
      "세트_투피스": 3955,
      "컬러풀": 3956,
      "86": 3957,
      "면바지": 3958,
      "모양": 3959,
      "사료": 3960,
      "꼬꼬밍": 3961,
      "코끼리": 3962,
      "스엔스텔라": 3963,
      "날날": 3964,
      "12x": 3965,
      "90": 3966,
      "조개": 3967,
      "스토리": 3968,
      "잠옷": 3969,
      "전사": 3970,
      "아쿠아": 3971,
      "유화": 3972,
      "재입고": 3973,
      "쭈리": 3974,
      "트윈": 3975,
      "보나로이": 3976,
      "ER": 3977,
      "_Y": 3978,
      "고기": 3979,
      "비글": 3980,
      "쇼핑": 3981,
      "미니멀": 3982,
      "바스켓": 3983,
      "멍멍": 3984,
      "랍바": 3985,
      "포근": 3986,
      "진주리본": 3987,
      "이어서": 3988,
      "20개": 3989,
      "더베이지": 3990,
      "요미": 3991,
      "카라슈트": 3992,
      "5mm": 3993,
      "시즌": 3994,
      "은볼": 3995,
      "의류_여성하의_데님팬츠": 3996,
      "나무키즈": 3997,
      "반짝이": 3998,
      "베일리": 3999,
      "사과": 4000,
      "유발": 4001,
      "스펀": 4002,
      "앵두": 4003,
      "59": 4004,
      "치렝": 4005,
      "플러스": 4006,
      "3개": 4007,
      "58": 4008,
      "방한": 4009,
      "속바지": 4010,
      "아이엠": 4011,
      "밀크파우더": 4012,
      "넥타이": 4013,
      "엄마": 4014,
      "크레": 4015,
      "페이즐": 4016,
      "스파이": 4017,
      "78": 4018,
      "트위": 4019,
      "후프": 4020,
      "프릴원피스": 4021,
      "패션잡화_여성신발_부츠": 4022,
      "페퍼민트": 4023,
      "미용용품": 4024,
      "4color": 4025,
      "쇼츠": 4026,
      "오드리": 4027,
      "2024": 4028,
      "루나": 4029,
      "무스": 4030,
      "52": 4031,
      "마그": 4032,
      "시리즈": 4033,
      "코인": 4034,
      "의류_여성상의_블라우스": 4035,
      "토끼티": 4036,
      "블랙핑크": 4037,
      "심플한": 4038,
      "PK": 4039,
      "버뮤": 4040,
      "식품": 4041,
      "자기": 4042,
      "토시": 4043,
      "드레스몬스터": 4044,
      "스펀지": 4045,
      "_925실버": 4046,
      "롤업": 4047,
      "은팔찌": 4048,
      "벨라나": 4049,
      "ETC": 4050,
      "마개": 4051,
      "반폴라": 4052,
      "애나": 4053,
      "일드": 4054,
      "콤비": 4055,
      "미용_미용용품": 4056,
      "셀룰로오스": 4057,
      "agpp": 4058,
      "51": 4059,
      "반달": 4060,
      "태희": 4061,
      "주방용품_주방용품_주방": 4062,
      "초코마루": 4063,
      "로다제이키즈": 4064,
      "주방용품_주방용품_주방잡화": 4065,
      "라비": 4066,
      "오팔": 4067,
      "찰랑": 4068,
      "리본원피스": 4069,
      "포켓팬츠": 4070,
      "효성": 4071,
      "의류_여성하의_수트": 4072,
      "인형_스티커": 4073,
      "브이넥": 4074,
      "버뮤다": 4075,
      "받이": 4076,
      "캘리": 4077,
      "나시세트": 4078,
      "프릴슈트": 4079,
      "로우비": 4080,
      "이니셜": 4081,
      "5개1세트": 4082,
      "6개": 4083,
      "룸퍼": 4084,
      "메르": 4085,
      "패션반지": 4086,
      "반려동물_이동": 4087,
      "패션잡화_패션소품_장갑": 4088,
      "다이노": 4089,
      "원팩토리": 4090,
      "산책용품_": 4091,
      "스파이더": 4092,
      "BE": 4093,
      "li": 4094,
      "레로": 4095,
      "SB": 4096,
      "금속": 4097,
      "진주목걸이": 4098,
      "긴팔티": 4099,
      "57": 4100,
      "디셈": 4101,
      "볼레로": 4102,
      "팬더": 4103,
      "귀마개": 4104,
      "꼼마": 4105,
      "폰줄": 4106,
      "후드점퍼": 4107,
      "제니베이직": 4108,
      "그로밋": 4109,
      "치렝스": 4110,
      "디셈버": 4111,
      "꼼마제이": 4112,
      "무무": 4113,
      "크록": 4114,
      "스트릿": 4115,
      "멜빵슈트": 4116,
      "페이크": 4117,
      "63": 4118,
      "rk": 4119,
      "강화": 4120,
      "별도": 4121,
      "마시밀라노": 4122,
      "쇼핑백": 4123,
      "도톰": 4124,
      "사람": 4125,
      "아젤": 4126,
      "아토": 4127,
      "턱받이": 4128,
      "악세사리_귀걸이_14": 4129,
      "에이치": 4130,
      "umm": 4131,
      "레시": 4132,
      "리에": 4133,
      "바디슈트": 4134,
      "세스": 4135,
      "주리": 4136,
      "지사": 4137,
      "포포": 4138,
      "실버목걸이": 4139,
      "똑딱삔": 4140,
      "50장": 4141,
      "악어샵": 4142,
      "피너츠": 4143,
      "ummer": 4144,
      "4p": 4145,
      "효성데코": 4146,
      "4P": 4147,
      "큐트": 4148,
      "53": 4149,
      "69": 4150,
      "고라": 4151,
      "린나": 4152,
      "아동복_주니어": 4153,
      "의류_남성상의_맨투맨": 4154,
      "54": 4155,
      "nrk": 4156,
      "운드": 4157,
      "코드": 4158,
      "5인치": 4159,
      "68": 4160,
      "스위": 4161,
      "퐁듀": 4162,
      "메리엠": 4163,
      "장안사양말": 4164,
      "삥줄": 4165,
      "식탁": 4166,
      "클락": 4167,
      "폰스트랩": 4168,
      "베베팩토리": 4169,
      "의류_여성상의_셔츠": 4170,
      "13호": 4171,
      "우리두리슈즈": 4172,
      "센스": 4173,
      "스풔": 4174,
      "통팬츠": 4175,
      "특대": 4176,
      "반려동물_패션잡화_헤어": 4177,
      "의류_여성아우터_가디건": 4178,
      "스풔린나": 4179,
      "303": 4180,
      "샤스커트": 4181,
      "어덜트": 4182,
      "티아": 4183,
      "스판바지": 4184,
      "작은모자": 4185,
      "무스탕": 4186,
      "달콤": 4187,
      "르베": 4188,
      "망토": 4189,
      "세서리": 4190,
      "액세서리": 4191,
      "코지": 4192,
      "인형_기타": 4193,
      "자수맨투맨": 4194,
      "모리모리": 4195,
      "210": 4196,
      "기구": 4197,
      "눈사람": 4198,
      "다다": 4199,
      "실크": 4200,
      "욕실": 4201,
      "이름": 4202,
      "줄무늬": 4203,
      "후로": 4204,
      "히트": 4205,
      "기모맨투맨": 4206,
      "물고기": 4207,
      "옆머리핀": 4208,
      "팬츠세트": 4209,
      "냄비받침": 4210,
      "67": 4211,
      "넘버": 4212,
      "스윔": 4213,
      "앙고라": 4214,
      "어클락": 4215,
      "볼펜": 4216,
      "앤유": 4217,
      "메이플": 4218,
      "있음": 4219,
      "핑크베리": 4220,
      "라봄": 4221,
      "체스": 4222,
      "메이드블루": 4223,
      "올리브": 4224,
      "밀리언": 4225,
      "NO": 4226,
      "아띠": 4227,
      "하리": 4228,
      "자수티": 4229,
      "디스코": 4230,
      "동전지갑": 4231,
      "레시피": 4232,
      "아동복_주니어_": 4233,
      "이름표": 4234,
      "mt": 4235,
      "롤리": 4236,
      "윈드": 4237,
      "추럴": 4238,
      "체크원피스": 4239,
      "배기팬츠": 4240,
      "mtm": 4241,
      "남대": 4242,
      "레자": 4243,
      "블레": 4244,
      "샤원피스": 4245,
      "조명": 4246,
      "플라워제이": 4247,
      "BT4": 4248,
      "61": 4249,
      "6mm": 4250,
      "소예": 4251,
      "코팅": 4252,
      "배색맨투맨": 4253,
      "아젤리아": 4254,
      "아웃": 4255,
      "올림": 4256,
      "카멜": 4257,
      "카페트": 4258,
      "마그넷": 4259,
      "2XL": 4260,
      "500": 4261,
      "CD": 4262,
      "고마": 4263,
      "피넛": 4264,
      "양말set": 4265,
      "미니레시피": 4266,
      "고마워": 4267,
      "310": 4268,
      "루비": 4269,
      "샌드": 4270,
      "주얼": 4271,
      "클린": 4272,
      "포니": 4273,
      "프린세스": 4274,
      "2세트": 4275,
      "개구리": 4276,
      "쟁반": 4277,
      "트루": 4278,
      "헤어_": 4279,
      "13cm": 4280,
      "천연석": 4281,
      "마르": 4282,
      "옆핀": 4283,
      "이티": 4284,
      "캠핑": 4285,
      "포켓티": 4286,
      "유발레깅스": 4287,
      "NE": 4288,
      "소가죽": 4289,
      "양산": 4290,
      "재야": 4291,
      "행사": 4292,
      "용기_물병": 4293,
      "카고바지": 4294,
      "방수": 4295,
      "줄리": 4296,
      "미니베이지": 4297,
      "나시원피스": 4298,
      "모찌": 4299,
      "블레싱": 4300,
      "87": 4301,
      "와펜": 4302,
      "캉스": 4303,
      "러브플레인": 4304,
      "밀짚모자": 4305,
      "르베브": 4306,
      "62": 4307,
      "일본": 4308,
      "USA": 4309,
      "도자기": 4310,
      "사무용품": 4311,
      "2size": 4312,
      "간식": 4313,
      "그라": 4314,
      "그램": 4315,
      "기념": 4316,
      "롬퍼": 4317,
      "뱀줄": 4318,
      "스턴": 4319,
      "뷰티미용_주얼리소품_팔찌": 4320,
      "시크릿": 4321,
      "8바": 4322,
      "보노": 4323,
      "크라운": 4324,
      "키니": 4325,
      "10장": 4326,
      "체크팬츠": 4327,
      "인형_사무용품": 4328,
      "에린제이": 4329,
      "관광": 4330,
      "규어": 4331,
      "반도": 4332,
      "에브리": 4333,
      "의류_여성아우터_집업": 4334,
      "꽃자수": 4335,
      "뜰리에": 4336,
      "상품": 4337,
      "커브": 4338,
      "헬레나": 4339,
      "후디": 4340,
      "크롭맨투맨": 4341,
      "의류_여성하의_미니스커트": 4342,
      "미들네임": 4343,
      "戒指": 4344,
      "디아": 4345,
      "피터": 4346,
      "랍빠티": 4347,
      "그로밍": 4348,
      "ie": 4349,
      "브라우스": 4350,
      "GH": 4351,
      "summer": 4352,
      "루시": 4353,
      "캐비": 4354,
      "식품_수입": 4355,
      "로브스키": 4356,
      "나잇베베": 4357,
      "ab": 4358,
      "리버스": 4359,
      "문스톤": 4360,
      "비녀": 4361,
      "와니": 4362,
      "째즈": 4363,
      "피규어": 4364,
      "후라이스": 4365,
      "트위스트": 4366,
      "E00": 4367,
      "국산": 4368,
      "디노": 4369,
      "반폴라티": 4370,
      "웨딩": 4371,
      "의류_남성아우터_홈웨어": 4372,
      "스냅백": 4373,
      "매직": 4374,
      "리본머리핀": 4375,
      "패딩조끼": 4376,
      "산책용품_목줄": 4377,
      "72": 4378,
      "몽글": 4379,
      "브러쉬": 4380,
      "스테": 4381,
      "킴삭스": 4382,
      "세컨드": 4383,
      "기능성": 4384,
      "곰돌": 4385,
      "마크": 4386,
      "위클리": 4387,
      "클로젯": 4388,
      "84": 4389,
      "도마": 4390,
      "기념품": 4391,
      "64": 4392,
      "깰끄": 4393,
      "달러": 4394,
      "보관": 4395,
      "에어팟": 4396,
      "스와로브스키": 4397,
      "후로킹": 4398,
      "7x": 4399,
      "TA": 4400,
      "디자": 4401,
      "로맨": 4402,
      "바캉스": 4403,
      "빼로": 4404,
      "블루앤아이": 4405,
      "똑딱이": 4406,
      "에폭시": 4407,
      "라이프_공예품_관광": 4408,
      "테이블매트": 4409,
      "라이프_공예품_관광기념품": 4410,
      "그리": 4411,
      "돼지": 4412,
      "번개": 4413,
      "젓가락": 4414,
      "제품": 4415,
      "로미유": 4416,
      "라이프_홈패브릭_카페트": 4417,
      "슬립온": 4418,
      "썬데이클로젯": 4419,
      "모두": 4420,
      "25x": 4421,
      "체인목걸이": 4422,
      "무드등": 4423,
      "2줄": 4424,
      "노이": 4425,
      "몬드": 4426,
      "비에": 4427,
      "스윗": 4428,
      "투라인": 4429,
      "하로하": 4430,
      "카라블라우스": 4431,
      "패브릭_기타": 4432,
      "트리플": 4433,
      "남대문": 4434,
      "하로하로": 4435,
      "74": 4436,
      "귀요미": 4437,
      "남자": 4438,
      "버드": 4439,
      "봉주": 4440,
      "아이스티": 4441,
      "1500": 4442,
      "악세사리_발찌_실버925": 4443,
      "에바다": 4444,
      "미니캐비": 4445,
      "에이스": 4446,
      "미니캐비넷": 4447,
      "71": 4448,
      "DA": 4449,
      "OM": 4450,
      "sk": 4451,
      "색상": 4452,
      "아펠": 4453,
      "인센스": 4454,
      "체인지": 4455,
      "마이슈즈": 4456,
      "라이프_홈패브릭_기타": 4457,
      "밀리언달러": 4458,
      "아띠몽": 4459,
      "꼬깔": 4460,
      "핸들": 4461,
      "홀리": 4462,
      "의류_여성상의_롱원피스": 4463,
      "메리제인": 4464,
      "디자인": 4465,
      "),": 4466,
      "5세트": 4467,
      "꽃잎": 4468,
      "바게": 4469,
      "플레": 4470,
      "토끼키링": 4471,
      "지지베": 4472,
      "NYC": 4473,
      "3p": 4474,
      "83": 4475,
      "ju": 4476,
      "곰인형": 4477,
      "나이": 4478,
      "사라": 4479,
      "자수원피스": 4480,
      "올리비에": 4481,
      "고방": 4482,
      "네잎": 4483,
      "와인": 4484,
      "팝콘": 4485,
      "10mm": 4486,
      "반팔티셔츠": 4487,
      "아가일": 4488,
      "0ml": 4489,
      "99": 4490,
      "디사이드": 4491,
      "라떼": 4492,
      "모라": 4493,
      "코디": 4494,
      "큐롯": 4495,
      "핸드폰스트랩": 4496,
      "프롬아이": 4497,
      "73": 4498,
      "마가": 4499,
      "부스": 4500,
      "프랑": 4501,
      "쁘띠헬레나": 4502,
      "라이프_실내인테리어_": 4503,
      "银925": 4504,
      "베기": 4505,
      "케이크": 4506,
      "리틀오브": 4507,
      "30x": 4508,
      "ssp": 4509,
      "크록스": 4510,
      "3M": 4511,
      "곰맨투맨": 4512,
      "러플": 4513,
      "반팬츠": 4514,
      "트랙": 4515,
      "5부팬츠": 4516,
      "멜로디": 4517,
      "구루구루": 4518,
      "식품_수입식품_": 4519,
      "그로우비": 4520,
      "야옹": 4521,
      "엔알": 4522,
      "캐주얼": 4523,
      "퐁퐁": 4524,
      "1set": 4525,
      "TS": 4526,
      "곰상하": 4527,
      "봉제": 4528,
      "알로아": 4529,
      "한정": 4530,
      "나뭇": 4531,
      "타임": 4532,
      "12개": 4533,
      "30수": 4534,
      "어반래빗": 4535,
      "다운": 4536,
      "은인": 4537,
      "르누": 4538,
      "쥬비": 4539,
      "학생": 4540,
      "악세사리_파인": 4541,
      "가방키링": 4542,
      "키키모라": 4543,
      "팬티세트": 4544,
      "싱글티": 4545,
      "엔알케이": 4546,
      "악세사리_파인주얼리": 4547,
      "가운": 4548,
      "반묶음": 4549,
      "버클": 4550,
      "블론": 4551,
      "로다제이베베": 4552,
      "밀리언달러베이비": 4553,
      "9부": 4554,
      "Pe": 4555,
      "꼬마레": 4556,
      "도그": 4557,
      "맘커플": 4558,
      "조절": 4559,
      "반장": 4560,
      "쇼즈": 4561,
      "할인": 4562,
      "보니앤": 4563,
      "트임티": 4564,
      "릴리부스": 4565,
      "메르시": 4566,
      "깰끄쇼즈": 4567,
      "N00": 4568,
      "韩国": 4569,
      "골든": 4570,
      "일론": 4571,
      "캠프": 4572,
      "아미고": 4573,
      "세컨드모먼트": 4574,
      "쥬비코": 4575,
      "블론디": 4576,
      "보니앤블론디": 4577,
      "남녀": 4578,
      "베뉴": 4579,
      "씨아이": 4580,
      "오씨아이": 4581,
      "쿨링": 4582,
      "알로아슈가": 4583,
      "서핑": 4584,
      "육각": 4585,
      "프라": 4586,
      "패션안경": 4587,
      "패션잡화_패션악세사리_패션안경": 4588,
      "오픈반지": 4589,
      "오리지": 4590,
      "의류_남성상의_반소매": 4591,
      "과자": 4592,
      "이브": 4593,
      "펭귄": 4594,
      "베베샤": 4595,
      "데님자켓": 4596,
      "오뜨르": 4597,
      "바게트": 4598,
      "银925戒指": 4599,
      "골프": 4600,
      "까멜": 4601,
      "나일론": 4602,
      "수예": 4603,
      "제리": 4604,
      "실버볼": 4605,
      "공예부자재_": 4606,
      "뷰티미용_수예": 4607,
      "다용도통": 4608,
      "하리보": 4609,
      "R실버925": 4610,
      "네코": 4611,
      "반목": 4612,
      "방석": 4613,
      "오가": 4614,
      "여름모자": 4615,
      "반팔세트": 4616,
      "01_": 4617,
      "비엔베뉴": 4618,
      "9x": 4619,
      "B00": 4620,
      "가구": 4621,
      "반반": 4622,
      "엠엔": 4623,
      "터키": 4624,
      "플리스": 4625,
      "토끼레깅스": 4626,
      "오리털": 4627,
      "디스코봉봉": 4628,
      "르츠": 4629,
      "보라": 4630,
      "플라워원피스": 4631,
      "패션잡화_패션소품_벨트": 4632,
      "마스크줄": 4633,
      "4x": 4634,
      "4mm": 4635,
      "],": 4636,
      "붐주니어": 4637,
      "뿌르앙": 4638,
      "쫀쫀": 4639,
      "프랜": 4640,
      "테디베어": 4641,
      "lip": 4642,
      "남녀공용": 4643,
      "오가닉": 4644,
      "뿌르앙빵": 4645,
      "82": 4646,
      "납작": 4647,
      "상사": 4648,
      "베베세트": 4649,
      "용기_식품": 4650,
      "스트라이프티": 4651,
      "용기_식품용기": 4652,
      "일그램": 4653,
      "볼체인": 4654,
      "저트": 4655,
      "패밀리": 4656,
      "히얼": 4657,
      "디저트": 4658,
      "세로": 4659,
      "아메": 4660,
      "에스크": 4661,
      "우성": 4662,
      "마리앤유": 4663,
      "엠엔제이": 4664,
      "속옷": 4665,
      "시그니": 4666,
      "애끼": 4667,
      "커버": 4668,
      "판다": 4669,
      "휴대": 4670,
      "가디건세트": 4671,
      "체크스커트": 4672,
      "티니핑": 4673,
      "카피": 4674,
      "아이모두": 4675,
      "핸드백": 4676,
      "주름치마바지": 4677,
      "해피걸": 4678,
      "페이퍼주니어": 4679,
      "라이프_실내인테리어_기타": 4680,
      "마가렛": 4681,
      "다잉": 4682,
      "써니": 4683,
      "폭스": 4684,
      "미니아이": 4685,
      "식기세트": 4686,
      "데님스커트": 4687,
      "꽃_조화_인조": 4688,
      "디셈버귀걸이": 4689,
      "꽃_조화_인조목": 4690,
      "레벨": 4691,
      "보카": 4692,
      "오일": 4693,
      "제깅스": 4694,
      "라이크": 4695,
      "3colors": 4696,
      "나뭇잎": 4697,
      "에스크미": 4698,
      "리프": 4699,
      "바코드": 4700,
      "의류_여성하의_롱스커트": 4701,
      "베러제이": 4702,
      "NEW": 4703,
      "로맨틱": 4704,
      "ish": 4705,
      "꽂이": 4706,
      "미츄": 4707,
      "지그": 4708,
      "하트목걸이": 4709,
      "니트티": 4710,
      "하프팬츠": 4711,
      "레오파": 4712,
      "2mm": 4713,
      "81": 4714,
      "플레어": 4715,
      "핀세트": 4716,
      "코코리본": 4717,
      "멍멍이": 4718,
      "식탁보": 4719,
      "트루퍼": 4720,
      "PE": 4721,
      "가위": 4722,
      "끌림": 4723,
      "면팬츠": 4724,
      "미우": 4725,
      "수제": 4726,
      "헤어링": 4727,
      "colors": 4728,
      "스팽클": 4729,
      "나이스미츄": 4730,
      "오프닝": 4731,
      "오렌지맘": 4732,
      "5p": 4733,
      "캣츠": 4734,
      "베이커": 4735,
      "개당1000": 4736,
      "트렌드": 4737,
      "렉스": 4738,
      "체크남방": 4739,
      "2023": 4740,
      "프릴블라우스": 4741,
      "쁘띠슈슈": 4742,
      "캉캉원피스": 4743,
      "_YR": 4744,
      "히얼아이엠": 4745,
      "8mm": 4746,
      "더페퍼": 4747,
      "크래": 4748,
      "다이애나": 4749,
      "오간디": 4750,
      "디사이드키즈": 4751,
      "93": 4752,
      "Clip": 4753,
      "Fish": 4754,
      "누피": 4755,
      "라벤": 4756,
      "인디": 4757,
      "쟈가드": 4758,
      "클럽": 4759,
      "타월": 4760,
      "304": 4761,
      "아트": 4762,
      "오라비": 4763,
      "튜브": 4764,
      "티브": 4765,
      "체크셔츠": 4766,
      "기모팬츠": 4767,
      "멜빵원피스": 4768,
      "비비엘리": 4769,
      "앤드버터": 4770,
      "체커보드": 4771,
      "보관함": 4772,
      "4부": 4773,
      "6바": 4774,
      "Lon": 4775,
      "nie": 4776,
      "럭비": 4777,
      "상상": 4778,
      "샤이": 4779,
      "양모": 4780,
      "재그": 4781,
      "커팅": 4782,
      "에이레벨": 4783,
      "공주원피스": 4784,
      "꼭지": 4785,
      "뽀송": 4786,
      "라라커플": 4787,
      "타이거": 4788,
      "인형_완구": 4789,
      "Lonnie": 4790,
      "97": 4791,
      "Pn": 4792,
      "뮤즈": 4793,
      "수동": 4794,
      "쥬르": 4795,
      "찬기": 4796,
      "크라": 4797,
      "토글": 4798,
      "후르츠": 4799,
      "미니백": 4800,
      "SAHB": 4801,
      "1줄": 4802,
      "TY": 4803,
      "ck": 4804,
      "달그랑": 4805,
      "유행": 4806,
      "진스": 4807,
      "수면조끼": 4808,
      "123": 4809,
      "5P": 4810,
      "95": 4811,
      "놀이": 4812,
      "마인": 4813,
      "멜멜": 4814,
      "상품_": 4815,
      "스웻": 4816,
      "한쌍": 4817,
      "미니집게핀": 4818,
      "애플캣": 4819,
      "라이프_홈패브릭_실내화": 4820,
      "레오파드": 4821,
      "나는": 4822,
      "스맨투맨": 4823,
      "톡톡": 4824,
      "준이사칠피어싱": 4825,
      "지그재그": 4826,
      "96": 4827,
      "98": 4828,
      "HA": 4829,
      "노나": 4830,
      "앨리": 4831,
      "천사": 4832,
      "캐리": 4833,
      "포니아": 4834,
      "핀턱팬츠": 4835,
      "카피바라": 4836,
      "AM": 4837,
      "다트": 4838,
      "마네": 4839,
      "반전": 4840,
      "단가라맨투맨": 4841,
      "02_": 4842,
      "플로리": 4843,
      "라이프_실내인테리어_조명": 4844,
      "수제화": 4845,
      "3세트": 4846,
      "G4": 4847,
      "다리": 4848,
      "전자": 4849,
      "추천": 4850,
      "미니원피스": 4851,
      "사각팬티": 4852,
      "브로지": 4853,
      "라운드티": 4854,
      "패션잡화_모자_비니": 4855,
      "허니비": 4856,
      "대영": 4857,
      "러브로지": 4858,
      "셀린": 4859,
      "요정": 4860,
      "정사각": 4861,
      "탈리": 4862,
      "편한": 4863,
      "슬리브": 4864,
      "기본티": 4865,
      "JK": 4866,
      "루루": 4867,
      "뽀앤": 4868,
      "선캡": 4869,
      "쭉티": 4870,
      "페인": 4871,
      "체크리본": 4872,
      "블루머세트": 4873,
      "리드": 4874,
      "마우스": 4875,
      "망고": 4876,
      "보아": 4877,
      "수정": 4878,
      "핀탁": 4879,
      "세일상품_": 4880,
      "볼드링": 4881,
      "플리츠팬츠": 4882,
      "뽀앤츄": 4883,
      "곰키링": 4884,
      "청은": 4885,
      "하와이": 4886,
      "아동복_세일상품_": 4887,
      "후드맨투맨": 4888,
      "데이션": 4889,
      "야구점퍼": 4890,
      "아동복_세일상품_기타": 4891,
      "론델": 4892,
      "야상": 4893,
      "카카": 4894,
      "코헨": 4895,
      "판세트": 4896,
      "제제마켓": 4897,
      "),(": 4898,
      "까멜리아": 4899,
      "120": 4900,
      "NK": 4901,
      "R00": 4902,
      "Y2": 4903,
      "be": 4904,
      "팬츠상하세트": 4905,
      "용기_식기세트": 4906,
      "슈퍼주니어": 4907,
      "ew": 4908,
      "나나": 4909,
      "내추럴": 4910,
      "메메": 4911,
      "빵떡": 4912,
      "탁상": 4913,
      "투게": 4914,
      "행복": 4915,
      "후드세트": 4916,
      "EA": 4917,
      "내열": 4918,
      "사계절": 4919,
      "센치": 4920,
      "쮸리": 4921,
      "실버리아": 4922,
      "의류_여성하의_숏팬츠": 4923,
      "캔디스": 4924,
      "패션잡화_여성신발_로퍼": 4925,
      "SS헤어": 4926,
      "아토메메": 4927,
      "투게더": 4928,
      "경사": 4929,
      "로스": 4930,
      "접이": 4931,
      "태리": 4932,
      "욕실용품": 4933,
      "그라데이션": 4934,
      "오리지널": 4935,
      "3mm": 4936,
      "LO": 4937,
      "거루": 4938,
      "꽃원피스": 4939,
      "유제니": 4940,
      "투투": 4941,
      "102": 4942,
      "제이스타": 4943,
      "인형꾸미기": 4944,
      "자수공예": 4945,
      "쥬쥬쥬얼리": 4946,
      "리틀래빗": 4947,
      "라이프_공예품_뜨개": 4948,
      "라이프_생활용품_욕실용품": 4949,
      "크레용": 4950,
      "302": 4951,
      "8단": 4952,
      "내의": 4953,
      "누누": 4954,
      "누스": 4955,
      "동그": 4956,
      "로제": 4957,
      "복주머니": 4958,
      "시원": 4959,
      "오탈리": 4960,
      "캥거루": 4961,
      "데님바지": 4962,
      "크림콕": 4963,
      "슈가온": 4964,
      "BEST": 4965,
      "티아라": 4966,
      "유제니캔디스": 4967,
      "RB": 4968,
      "녀와": 4969,
      "루미": 4970,
      "안개": 4971,
      "이플": 4972,
      "정리": 4973,
      "토어": 4974,
      "폴로": 4975,
      "나시상하": 4976,
      "오프닝앤": 4977,
      "링크": 4978,
      "스누피": 4979,
      "핑거": 4980,
      "하의": 4981,
      "한세트": 4982,
      "베이스": 4983,
      "주방소품": 4984,
      "패브릭_주방소품": 4985,
      "2type": 4986,
      "5족": 4987,
      "세인": 4988,
      "파로미": 4989,
      "스트로": 4990,
      "공룡티": 4991,
      "8부": 4992,
      "cs": 4993,
      "가벼": 4994,
      "애견": 4995,
      "야수": 4996,
      "라이드": 4997,
      "카라멜": 4998,
      "_강아지": 4999,
      "마운": 5000,
      "미녀와": 5001,
      "상의": 5002,
      "인증": 5003,
      "챙모자": 5004,
      "청남방": 5005,
      "크루": 5006,
      "****": 5007,
      "미녀와야수": 5008,
      "le": 5009,
      "내츄럴": 5010,
      "블럭": 5011,
      "어리": 5012,
      "아이빅": 5013,
      "아이언": 5014,
      "진주귀걸이": 5015,
      "데님반바지": 5016,
      "벙거지모자": 5017,
      "데끼": 5018,
      "미시": 5019,
      "빅리본": 5020,
      "반지세트": 5021,
      "스마일맨투맨": 5022,
      "헤어핀세트": 5023,
      "패브릭_식탁보": 5024,
      "누빔자켓": 5025,
      "3부": 5026,
      "320": 5027,
      "KC": 5028,
      "ac": 5029,
      "꽃송이": 5030,
      "더리틀오브": 5031,
      "마름": 5032,
      "모기": 5033,
      "플랩": 5034,
      "꽃_부자재_포장": 5035,
      "셔링티": 5036,
      "피치피치": 5037,
      "가벼운": 5038,
      "꽃_부자재_포장용품": 5039,
      "220": 5040,
      "400": 5041,
      "떡볶": 5042,
      "라기": 5043,
      "모이스": 5044,
      "박시": 5045,
      "볼록": 5046,
      "써티": 5047,
      "엑스": 5048,
      "줄줄": 5049,
      "침귀걸이": 5050,
      "블루밍": 5051,
      "레이스팬츠": 5052,
      "지갑_백팩": 5053,
      "12mm": 5054,
      "2개부터": 5055,
      "날라리티": 5056,
      "냉장고자석": 5057,
      "크라프트": 5058,
      "Y2K": 5059,
      "8cm": 5060,
      "91": 5061,
      "곰곰": 5062,
      "목폴라": 5063,
      "방방": 5064,
      "삼선": 5065,
      "세안": 5066,
      "악세사리_반지_골드14": 5067,
      "50개": 5068,
      "떡볶이": 5069,
      "모이스토어": 5070,
      "청스커트": 5071,
      "치노": 5072,
      "린넨팬츠": 5073,
      "헬로키티": 5074,
      "마운틴": 5075,
      "3x": 5076,
      "단작": 5077,
      "도시": 5078,
      "도라이트": 5079,
      "벽시계": 5080,
      "야누스": 5081,
      "힙색": 5082,
      "24summer": 5083,
      "개당300": 5084,
      "페이즐리": 5085,
      "시그니처": 5086,
      "IT": 5087,
      "OR": 5088,
      "나라": 5089,
      "방지": 5090,
      "세진": 5091,
      "요이": 5092,
      "파리스": 5093,
      "헤어삔": 5094,
      "세트_수트": 5095,
      "발레리나": 5096,
      "캘리포니아": 5097,
      "크래커": 5098,
      "OT": 5099,
      "레저": 5100,
      "헤일리": 5101,
      "데님청바지": 5102,
      "골지타이즈": 5103,
      "바이오": 5104,
      "니삭스세트": 5105,
      "BT3": 5106,
      "롤리팝": 5107,
      "마름모": 5108,
      "SM": 5109,
      "군번": 5110,
      "마들": 5111,
      "어깨": 5112,
      "전신": 5113,
      "차단": 5114,
      "플라이": 5115,
      "리본세트": 5116,
      "반려동물_사료": 5117,
      "erc": 5118,
      "페이스": 5119,
      "나그랑맨투맨": 5120,
      "글로시": 5121,
      "네잎클로버": 5122,
      "110": 5123,
      "꽈베기": 5124,
      "대형": 5125,
      "세줄": 5126,
      "포레": 5127,
      "스마일상하": 5128,
      "케이블": 5129,
      "11cm": 5130,
      "무지레깅스": 5131,
      "로즈마리": 5132,
      "에스닉": 5133,
      "네츄럴": 5134,
      "몽셀": 5135,
      "배낭": 5136,
      "성수동": 5137,
      "쁘띠모": 5138,
      "크리미": 5139,
      "세인츠": 5140,
      "at": 5141,
      "ierc": 5142,
      "가로": 5143,
      "건강": 5144,
      "포그니": 5145,
      "헌팅": 5146,
      "레이커": 5147,
      "에이미": 5148,
      "엘리키키": 5149,
      "레인부츠": 5150,
      "푸이푸이": 5151,
      "몽셀슈슈": 5152,
      "iercing": 5153,
      "NB": 5154,
      "루디아": 5155,
      "시블": 5156,
      "알록": 5157,
      "주전자": 5158,
      "쥬얼": 5159,
      "키친": 5160,
      "하이세인츠": 5161,
      "똑딱핀세트": 5162,
      "3P세트": 5163,
      "라벤더": 5164,
      "SS헤어신상": 5165,
      "7mm": 5166,
      "PI": 5167,
      "도토리": 5168,
      "쎄트": 5169,
      "철제": 5170,
      "패드": 5171,
      "리본블라우스": 5172,
      "머리삔": 5173,
      "치마레깅스": 5174,
      "몰리빈": 5175,
      "뷰티미용_네일": 5176,
      "뷰티미용_네일용품_": 5177,
      "420": 5178,
      "ar": 5179,
      "젤라": 5180,
      "콜리": 5181,
      "핵진주": 5182,
      "니트모자": 5183,
      "에이플러스": 5184,
      "와이드바지": 5185,
      "스트링팬츠": 5186,
      "레드필통": 5187,
      "캐릭터즈": 5188,
      "애니띵": 5189,
      "꼬마비": 5190,
      "르누아": 5191,
      "접이식": 5192,
      "마들렌": 5193,
      "데이트": 5194,
      "모나": 5195,
      "필기구": 5196,
      "항공": 5197,
      "자수볼캡": 5198,
      "하이윤": 5199,
      "심플링": 5200,
      "100장": 5201,
      "노방": 5202,
      "뉴진스": 5203,
      "돌돌이": 5204,
      "르쁘띠모": 5205,
      "원피스세트": 5206,
      "목걸이_": 5207,
      "레이스슈트": 5208,
      "악세사리_팔찌_랩": 5209,
      "미용_네일": 5210,
      "미용_네일용품": 5211,
      "][": 5212,
      "글란": 5213,
      "니쉬": 5214,
      "래브라": 5215,
      "러드": 5216,
      "봉쥬르": 5217,
      "월신상": 5218,
      "트윌": 5219,
      "티크": 5220,
      "🇰🇷": 5221,
      "실버하트": 5222,
      "리본키링": 5223,
      "레이스보넷": 5224,
      "***": 5225,
      "엘사원피스": 5226,
      "리버시블": 5227,
      "모루": 5228,
      "불빛": 5229,
      "아르": 5230,
      "연필": 5231,
      "치이": 5232,
      "폴리": 5233,
      "겨울신상": 5234,
      "150": 5235,
      "인형_필기구": 5236,
      "성은사": 5237,
      "식품_수입식품_과자": 5238,
      "래브라도라이트": 5239,
      "2컬러": 5240,
      "94": 5241,
      "fw": 5242,
      "랜턴": 5243,
      "망커즈": 5244,
      "보스턴": 5245,
      "츄리": 5246,
      "리본맨투맨": 5247,
      "마이마이": 5248,
      "포켓몬": 5249,
      "시티모자": 5250,
      "호박성": 5251,
      "8바있음": 5252,
      "프랜즈": 5253,
      "도시락": 5254,
      "CM": 5255,
      "MA": 5256,
      "댕댕": 5257,
      "이태리": 5258,
      "종이": 5259,
      "텍스": 5260,
      "플래닛": 5261,
      "방한모": 5262,
      "행복주방": 5263,
      "KC인증": 5264,
      "KE": 5265,
      "ODA": 5266,
      "경량": 5267,
      "굿데이": 5268,
      "느낌": 5269,
      "라카멜": 5270,
      "셀럽": 5271,
      "아로하": 5272,
      "약돌": 5273,
      "에나": 5274,
      "원반도": 5275,
      "조약돌": 5276,
      "지아": 5277,
      "애플민트": 5278,
      "메이드스튜디오": 5279,
      "3컬러": 5280,
      "겟썸": 5281,
      "곰슈트": 5282,
      "그림": 5283,
      "에버": 5284,
      "파치": 5285,
      "5x4": 5286,
      "지비츠세트": 5287,
      "플래버": 5288,
      "스위트": 5289,
      "겟썸플래버": 5290,
      "WB": 5291,
      "송송": 5292,
      "엘라": 5293,
      "잠바": 5294,
      "퀄팅": 5295,
      "피쉬": 5296,
      "휘바": 5297,
      "집게핀세트": 5298,
      "하트원피스": 5299,
      "니트스웨터": 5300,
      "반팔상하": 5301,
      "오간자": 5302,
      "터키석": 5303,
      "NT": 5304,
      "_00": 5305,
      "꿈치": 5306,
      "댄디": 5307,
      "메로": 5308,
      "보릿": 5309,
      "양념": 5310,
      "워크": 5311,
      "투데이": 5312,
      "하니": 5313,
      "헬로우": 5314,
      "홀로그": 5315,
      "5부레깅스": 5316,
      "의류_남성상의_긴소매": 5317,
      "홀로그램": 5318,
      "가격": 5319,
      "리치": 5320,
      "병아리": 5321,
      "텐셀": 5322,
      "페이보릿": 5323,
      "가파치": 5324,
      "젤펜": 5325,
      "티포트": 5326,
      "후크": 5327,
      "001": 5328,
      "비즈반지": 5329,
      "로즈골드": 5330,
      "헬로아이": 5331,
      "200장": 5332,
      "스파이더맨": 5333,
      "7종": 5334,
      "piercing": 5335,
      "끈원피스": 5336,
      "러버": 5337,
      "세모": 5338,
      "제트": 5339,
      "폭주": 5340,
      "블루아이": 5341,
      "용기_쟁반": 5342,
      "반바지상하": 5343,
      "멜빵스커트": 5344,
      "패션잡화_여성신발_구두": 5345,
      "레브베베": 5346,
      "건빵바지": 5347,
      "니아뜰리에": 5348,
      "빼로베베": 5349,
      "인센스스틱": 5350,
      "플레니아뜰리에": 5351,
      "Type": 5352,
      "동백": 5353,
      "모카": 5354,
      "엣지": 5355,
      "블라썸": 5356,
      "스마트톡_": 5357,
      "무니켈침": 5358,
      "르앙주": 5359,
      "5순": 5360,
      "6부": 5361,
      "물나염": 5362,
      "브레드": 5363,
      "소피아": 5364,
      "슬럽": 5365,
      "접착": 5366,
      "판매": 5367,
      "의류_여성스포츠": 5368,
      "패딩점퍼": 5369,
      "주름팬츠": 5370,
      "비즈팔찌": 5371,
      "뷰티미용_뷰티": 5372,
      "5순은귀걸이": 5373,
      "ou": 5374,
      "돌고래": 5375,
      "또또": 5376,
      "세지": 5377,
      "슬라이드": 5378,
      "자체": 5379,
      "쥬라기": 5380,
      "호랑이": 5381,
      "망사원피스": 5382,
      "공예부자재_인형꾸미기": 5383,
      "가랜드": 5384,
      "남여": 5385,
      "누메로": 5386,
      "뭉치": 5387,
      "얇은": 5388,
      "언더": 5389,
      "첵첵": 5390,
      "카와": 5391,
      "파이어": 5392,
      "파스타": 5393,
      "패트": 5394,
      "크로스가방": 5395,
      "스판티": 5396,
      "디테일": 5397,
      "리원피스": 5398,
      "샐러드": 5399,
      "스피": 5400,
      "에그": 5401,
      "영문": 5402,
      "오벌": 5403,
      "코발": 5404,
      "행운": 5405,
      "24FW": 5406,
      "일자팬츠": 5407,
      "시나모": 5408,
      "세안밴드": 5409,
      "헌팅캡": 5410,
      "치이카와": 5411,
      "5set": 5412,
      "JA": 5413,
      "귀도리": 5414,
      "다온": 5415,
      "랩스커트": 5416,
      "빗살": 5417,
      "삔세트": 5418,
      "산리": 5419,
      "손가락": 5420,
      "수미": 5421,
      "에밀리": 5422,
      "펠트": 5423,
      "10cm": 5424,
      "베어세트": 5425,
      "배기바지": 5426,
      "블룸베베": 5427,
      "플리츠스커트": 5428,
      "주방용품_주방조리도구_냄비": 5429,
      "날날이": 5430,
      "플랩캡": 5431,
      "레저_": 5432,
      "코발트": 5433,
      "2c": 5434,
      "JP": 5435,
      "게임": 5436,
      "멜로우": 5437,
      "보트": 5438,
      "샤프": 5439,
      "샤이니": 5440,
      "슈르르": 5441,
      "항아리": 5442,
      "헤어집게": 5443,
      "리본밴드": 5444,
      "배색팬츠": 5445,
      "309": 5446,
      "은반지_YR": 5447,
      "건빵팬츠": 5448,
      "비닐봉투": 5449,
      "호두아이": 5450,
      "4족세트": 5451,
      "SU": 5452,
      "거북": 5453,
      "귀욤": 5454,
      "뚜껑": 5455,
      "브룩": 5456,
      "순이": 5457,
      "오카카": 5458,
      "홀터": 5459,
      "코코방": 5460,
      "프리제": 5461,
      "메이크": 5462,
      "통통하트": 5463,
      "프린트": 5464,
      "5은": 5465,
      "링백": 5466,
      "앵글": 5467,
      "이프": 5468,
      "줄란": 5469,
      "하트큐빅": 5470,
      "올림머리": 5471,
      "뷰티미용_네일용품_파츠": 5472,
      "다발": 5473,
      "달달": 5474,
      "달록": 5475,
      "드로": 5476,
      "리사": 5477,
      "발송": 5478,
      "사진": 5479,
      "시라쿠": 5480,
      "오피스": 5481,
      "인어": 5482,
      "전체": 5483,
      "화장": 5484,
      "헤어스크런치": 5485,
      "리본스커트": 5486,
      "리본자수": 5487,
      "주문폭주": 5488,
      "프릴팬츠": 5489,
      "우주복": 5490,
      "레몬트리": 5491,
      "보노버튼": 5492,
      "에스크미애니띵": 5493,
      "군번줄": 5494,
      "6cm": 5495,
      "그릴": 5496,
      "까꿍": 5497,
      "로망": 5498,
      "배냇": 5499,
      "오션": 5500,
      "키링_": 5501,
      "블루종": 5502,
      "의류_여성상의_조끼": 5503,
      "토끼원피스": 5504,
      "바이커": 5505,
      "스카이": 5506,
      "라스텔라슈즈": 5507,
      "여행가방": 5508,
      "슈르르까": 5509,
      "시라쿠스": 5510,
      "겸용": 5511,
      "기장": 5512,
      "비버": 5513,
      "세마리": 5514,
      "시카고": 5515,
      "스틸하우스": 5516,
      "스마트폰": 5517,
      "브루클린": 5518,
      "클리어": 5519,
      "500원": 5520,
      "8종": 5521,
      "벙어리": 5522,
      "붕어": 5523,
      "상어": 5524,
      "스팅": 5525,
      "켤레": 5526,
      "파워": 5527,
      "하운드": 5528,
      "리본헤어밴드": 5529,
      "무지티": 5530,
      "리틀쥬": 5531,
      "2개1세트": 5532,
      "플랜비": 5533,
      "다다다": 5534,
      "봉주르앙주": 5535,
      "동그라미": 5536,
      "he": 5537,
      "까니쉬": 5538,
      "둥이": 5539,
      "드로즈": 5540,
      "마일드": 5541,
      "베몽": 5542,
      "부착": 5543,
      "샹달": 5544,
      "조립": 5545,
      "커스": 5546,
      "히어": 5547,
      "크로플": 5548,
      "보넷모자": 5549,
      "OPP": 5550,
      "키치키치": 5551,
      "거즈": 5552,
      "연결": 5553,
      "운치": 5554,
      "원접시": 5555,
      "쥬리": 5556,
      "실버팔찌": 5557,
      "20장": 5558,
      "마이미": 5559,
      "11x": 5560,
      "주방용품_주방조리도구_도마": 5561,
      "자체제작": 5562,
      "HTS": 5563,
      "LD": 5564,
      "T형": 5565,
      "광성사": 5566,
      "대기": 5567,
      "러운": 5568,
      "무꿈치": 5569,
      "백설": 5570,
      "빛나는": 5571,
      "와일드": 5572,
      "치치": 5573,
      "쿠로미": 5574,
      "ale": 5575,
      "삐삐다이어리": 5576,
      "트윈스": 5577,
      "운치키즈": 5578,
      "매일": 5579,
      "모티브": 5580,
      "샤방": 5581,
      "아씨": 5582,
      "좋은": 5583,
      "하는": 5584,
      "행기": 5585,
      "나비드": 5586,
      "16x": 5587,
      "개당1500": 5588,
      "미니어쳐": 5589,
      "하나코코": 5590,
      "시크릿쥬쥬": 5591,
      "01_귀걸이_": 5592,
      "5단": 5593,
      "BM": 5594,
      "VE": 5595,
      "가이": 5596,
      "덜튼": 5597,
      "마일": 5598,
      "백제": 5599,
      "베니": 5600,
      "에디": 5601,
      "엘리스": 5602,
      "인견": 5603,
      "쫄바지": 5604,
      "스마일세트": 5605,
      "골지나시": 5606,
      "자수정": 5607,
      "랜덤발송": 5608,
      "남여공용": 5609,
      "거북이": 5610,
      "2종세트": 5611,
      "3type": 5612,
      "JR": 5613,
      "꽃무늬": 5614,
      "남해": 5615,
      "노랑": 5616,
      "농구": 5617,
      "땅콩": 5618,
      "버거": 5619,
      "사슴": 5620,
      "슬랍": 5621,
      "이전": 5622,
      "일센치": 5623,
      "저스트": 5624,
      "테두리": 5625,
      "파일": 5626,
      "피오": 5627,
      "화분": 5628,
      "카라세트": 5629,
      "데이터": 5630,
      "패션잡화_패션소품_우산": 5631,
      "써클큐브": 5632,
      "리버티": 5633,
      "줄줄이": 5634,
      "HP": 5635,
      "ay": 5636,
      "라피아": 5637,
      "루피": 5638,
      "리빙": 5639,
      "보닛": 5640,
      "샬롬": 5641,
      "소리": 5642,
      "실반지": 5643,
      "앤오픈": 5644,
      "어스": 5645,
      "토토": 5646,
      "티탄": 5647,
      "펜더": 5648,
      "10세트": 5649,
      "베어키링": 5650,
      "야옹이": 5651,
      "알록달록": 5652,
      "이전중": 5653,
      "메종": 5654,
      "모네": 5655,
      "봄봄": 5656,
      "스펠": 5657,
      "아나": 5658,
      "야광": 5659,
      "야채": 5660,
      "핑클": 5661,
      "허리": 5662,
      "2500": 5663,
      "하트키링": 5664,
      "테리팬츠": 5665,
      "벨벳리본": 5666,
      "세컨룩": 5667,
      "피터패트": 5668,
      "홀리데이": 5669,
      "마네킹": 5670,
      "시나모롤": 5671,
      "EK": 5672,
      "re": 5673,
      "라글란": 5674,
      "람쥐": 5675,
      "래금속": 5676,
      "리개": 5677,
      "미래금속": 5678,
      "분또": 5679,
      "사랑": 5680,
      "서클": 5681,
      "센트": 5682,
      "소세지": 5683,
      "수세미": 5684,
      "슬라": 5685,
      "웃음": 5686,
      "케익": 5687,
      "팔각": 5688,
      "호제트": 5689,
      "체크바지": 5690,
      "레이스레깅스": 5691,
      "퍼프맨투맨": 5692,
      "개당3": 5693,
      "so": 5694,
      "레진": 5695,
      "링집": 5696,
      "미반": 5697,
      "베트": 5698,
      "생산": 5699,
      "지블레싱": 5700,
      "카키": 5701,
      "틱톡": 5702,
      "104": 5703,
      "레이스스커트": 5704,
      "바이브": 5705,
      "피그맨투맨": 5706,
      "스모크원피스": 5707,
      "트렌치": 5708,
      "넘버원": 5709,
      "30수후라이스": 5710,
      "UV": 5711,
      "삑삑": 5712,
      "사지": 5713,
      "아폴로": 5714,
      "어린": 5715,
      "절기": 5716,
      "조각": 5717,
      "집개": 5718,
      "후드상하": 5719,
      "레이스리본": 5720,
      "기모레깅스": 5721,
      "베어슈트": 5722,
      "50ml": 5723,
      "핀턱조거팬츠": 5724,
      "여아한복": 5725,
      "슈가플래닛": 5726,
      "남아한복": 5727,
      "지지베베": 5728,
      "6p": 5729,
      "곰자수": 5730,
      "루이": 5731,
      "번들": 5732,
      "빵빵": 5733,
      "숏비니": 5734,
      "알로하": 5735,
      "예쁜": 5736,
      "회전": 5737,
      "세트_점프수트": 5738,
      "하트리본": 5739,
      "머리테": 5740,
      "골지팬츠": 5741,
      "자수슈트": 5742,
      "LED샌들": 5743,
      "이어링E": 5744,
      "옐로우핀": 5745,
      "오일병": 5746,
      "감성": 5747,
      "링클": 5748,
      "마조리": 5749,
      "스완": 5750,
      "장화": 5751,
      "카우": 5752,
      "캡틴": 5753,
      "현대기": 5754,
      "103": 5755,
      "인형용": 5756,
      "와이드데님팬츠": 5757,
      "방울머리끈": 5758,
      "프리티": 5759,
      "비아트": 5760,
      "플루플루": 5761,
      "간식_강아지": 5762,
      "마조리카": 5763,
      "현대기물": 5764,
      "간식_강아지사료": 5765,
      "211": 5766,
      "403": 5767,
      "po": 5768,
      "다람쥐": 5769,
      "레아": 5770,
      "링글": 5771,
      "망또": 5772,
      "베네": 5773,
      "스토": 5774,
      "착용": 5775,
      "코알라": 5776,
      "티스트": 5777,
      "포스": 5778,
      "250": 5779,
      "105": 5780,
      "세라믹": 5781,
      "와플티": 5782,
      "절개팬츠": 5783,
      "슬라브": 5784,
      "SH": 5785,
      "티티": 5786,
      "하트맨투맨": 5787,
      "데님셔츠": 5788,
      "카라니트": 5789,
      "부자재_제품": 5790,
      "12cm": 5791,
      "크로바": 5792,
      "레인코트": 5793,
      "핸드폰키링": 5794,
      "비치백": 5795,
      "국내생산": 5796,
      "스키니": 5797,
      "스몰라벨": 5798,
      "스트로베리": 5799,
      "부자재_제품택": 5800,
      "넓은": 5801,
      "로마": 5802,
      "선데이": 5803,
      "스테이": 5804,
      "캐스팅": 5805,
      "실버피어싱": 5806,
      "집게삔": 5807,
      "카라티셔츠": 5808,
      "11월": 5809,
      "아크릴집게핀": 5810,
      "버뮤다팬츠": 5811,
      "토글바": 5812,
      "히어로": 5813,
      "삑삑이": 5814,
      "silver": 5815,
      "고퀄": 5816,
      "마스": 5817,
      "몽드": 5818,
      "젤로": 5819,
      "주물": 5820,
      "중목": 5821,
      "리본플랫": 5822,
      "데님원피스": 5823,
      "스마일꽃": 5824,
      "스왈진주": 5825,
      "지지미": 5826,
      "캠프캡": 5827,
      "아메티스트": 5828,
      "애끼반지": 5829,
      "샤이닝": 5830,
      "캐리어": 5831,
      "양념통": 5832,
      "수술": 5833,
      "스칼": 5834,
      "줄티": 5835,
      "티슈": 5836,
      "하늘": 5837,
      "13x": 5838,
      "5부바지": 5839,
      "바나나핀": 5840,
      "여자모자": 5841,
      "3C": 5842,
      "RA": 5843,
      "new": 5844,
      "공기": 5845,
      "바인": 5846,
      "부채": 5847,
      "빅카라": 5848,
      "슬러브": 5849,
      "엠버": 5850,
      "정장": 5851,
      "타리": 5852,
      "트라이": 5853,
      "파라": 5854,
      "실내복세트": 5855,
      "비비안": 5856,
      "와니와니": 5857,
      "페인팅": 5858,
      "건조": 5859,
      "그물": 5860,
      "깔끔": 5861,
      "너먼트": 5862,
      "롤링": 5863,
      "세탁": 5864,
      "토우": 5865,
      "포차": 5866,
      "팬츠추가": 5867,
      "집게형": 5868,
      "1000원": 5869,
      "드롭귀걸이": 5870,
      "와이드청": 5871,
      "비치웨어": 5872,
      "TAKE": 5873,
      "프랑스": 5874,
      "cks": 5875,
      "SM2": 5876,
      "socks": 5877,
      "1판": 5878,
      "HOT": 5879,
      "들러": 5880,
      "딸랑이": 5881,
      "로나": 5882,
      "빌리": 5883,
      "손가방": 5884,
      "스팬츠": 5885,
      "아델": 5886,
      "연세": 5887,
      "오레오": 5888,
      "와샤": 5889,
      "푸우": 5890,
      "하트귀걸이": 5891,
      "아이린": 5892,
      "10_": 5893,
      "데이크": 5894,
      "18x": 5895,
      "5개세트": 5896,
      "100개": 5897,
      "라이프_홈패브릭_수건": 5898,
      "악세사리_발찌_써지컬": 5899,
      "juju": 5900,
      "들레": 5901,
      "런닝": 5902,
      "몽실": 5903,
      "미러": 5904,
      "불독": 5905,
      "사파리": 5906,
      "쉐입": 5907,
      "시아": 5908,
      "여리": 5909,
      "오너먼트": 5910,
      "쥬시": 5911,
      "캠퍼": 5912,
      "해성": 5913,
      "헬멧": 5914,
      "의류_여성상의_속옷": 5915,
      "베어상하": 5916,
      "애견의류": 5917,
      "빛나는구름": 5918,
      "Ring": 5919,
      "nd": 5920,
      "긴바지": 5921,
      "꽃이": 5922,
      "꽃다발": 5923,
      "끈벙거지": 5924,
      "다꾸": 5925,
      "도형": 5926,
      "백색": 5927,
      "보냉": 5928,
      "부케": 5929,
      "빅포켓": 5930,
      "빨간": 5931,
      "뽀송이": 5932,
      "서지컬": 5933,
      "세사": 5934,
      "쏘드": 5935,
      "원더": 5936,
      "자물": 5937,
      "치타": 5938,
      "겨울모자": 5939,
      "부자재_조립": 5940,
      "조거PT": 5941,
      "반려동물_패션잡화_": 5942,
      "주름바지": 5943,
      "스티치팬츠": 5944,
      "2개세트": 5945,
      "바람막이점퍼": 5946,
      "이중티": 5947,
      "마니마니": 5948,
      "디즈니정품": 5949,
      "피너츠하우스": 5950,
      "아동복_주니어_상의": 5951,
      "반목티": 5952,
      "댕댕이": 5953,
      "부자재_조립부자재": 5954,
      "MOM": 5955,
      "as": 5956,
      "덮개": 5957,
      "슬링백": 5958,
      "시그": 5959,
      "인장": 5960,
      "카모": 5961,
      "팡야": 5962,
      "미니리본": 5963,
      "old": 5964,
      "도트원피스": 5965,
      "스튜디오엠": 5966,
      "CK": 5967,
      "No": 5968,
      "그레이스": 5969,
      "난희": 5970,
      "드맨투맨": 5971,
      "야자수": 5972,
      "줄리아": 5973,
      "콜라": 5974,
      "탄생": 5975,
      "토드": 5976,
      "미니하트": 5977,
      "106": 5978,
      "악세사리_목걸이_골드14": 5979,
      "토끼맨투맨": 5980,
      "크롭티셔츠": 5981,
      "래빗티": 5982,
      "라이프_홈패브릭_쿠션": 5983,
      "HBSR": 5984,
      "네이처": 5985,
      "번개맨": 5986,
      "마조리카스튜디오": 5987,
      "2k": 5988,
      "고냥이": 5989,
      "로지": 5990,
      "먼지": 5991,
      "반구": 5992,
      "사르": 5993,
      "선인장": 5994,
      "안감": 5995,
      "엣뜨": 5996,
      "이한": 5997,
      "있는": 5998,
      "파카라": 5999,
      "아이돌": 6000,
      "아이마이미": 6001,
      "15cm": 6002,
      "반려동물_미용": 6003,
      "크롭후드": 6004,
      "건강_": 6005,
      "티탄침": 6006,
      "스펠라": 6007,
      "자물쇠": 6008,
      "3set": 6009,
      "om": 6010,
      "글렌": 6011,
      "롱부츠": 6012,
      "리노": 6013,
      "면티": 6014,
      "바닥": 6015,
      "블랭": 6016,
      "슈엣뜨": 6017,
      "코사지": 6018,
      "행주": 6019,
      "베베스푼": 6020,
      "데일리데일리": 6021,
      "진주큐빅": 6022,
      "골지가디건": 6023,
      "골지실내복": 6024,
      "핑크로로": 6025,
      "111": 6026,
      "러브미": 6027,
      "코코아이": 6028,
      "패션잡화_모자_두건": 6029,
      "308": 6030,
      "위드아이": 6031,
      "카드지갑": 6032,
      "포포치치": 6033,
      "베이스볼": 6034,
      "1p": 6035,
      "3size": 6036,
      "간절기": 6037,
      "노블리": 6038,
      "니나": 6039,
      "마요": 6040,
      "메달": 6041,
      "무릎": 6042,
      "원통": 6043,
      "인타": 6044,
      "맨투맨추가": 6045,
      "리본자동핀": 6046,
      "반팔셔츠": 6047,
      "하이탑": 6048,
      "플로랄": 6049,
      "모모프랜즈": 6050,
      "옐로우팩토리": 6051,
      "트레이닝팬츠": 6052,
      "랍바티": 6053,
      "EM": 6054,
      "도도": 6055,
      "랑쥬": 6056,
      "민들레": 6057,
      "수채": 6058,
      "싸개": 6059,
      "철집게핀": 6060,
      "커먼": 6061,
      "테슬": 6062,
      "투스": 6063,
      "포프리": 6064,
      "헤링": 6065,
      "후드티셔츠": 6066,
      "래빗키링": 6067,
      "미키상하": 6068,
      "작은아씨": 6069,
      "다이아몬드": 6070,
      "파이프": 6071,
      "오투쥬얼리": 6072,
      "우성상사": 6073,
      "쏘드랑쥬": 6074,
      "사르비아": 6075,
      "5color": 6076,
      "B실버925": 6077,
      "비스": 6078,
      "아셀": 6079,
      "에이트": 6080,
      "촛대": 6081,
      "출고": 6082,
      "컵받침": 6083,
      "킨더": 6084,
      "통과": 6085,
      "하고": 6086,
      "실버리본": 6087,
      "후드슈트": 6088,
      "하이넥": 6089,
      "하이디": 6090,
      "14x": 6091,
      "바닐라버니겨울": 6092,
      "올리비아": 6093,
      "썬캡모자": 6094,
      "아동복_주니어_하의": 6095,
      "붕어빵": 6096,
      "ov": 6097,
      "도로": 6098,
      "러프": 6099,
      "로얄": 6100,
      "삼색": 6101,
      "소다": 6102,
      "솔리드": 6103,
      "웬디": 6104,
      "청소": 6105,
      "캐시": 6106,
      "쿼츠": 6107,
      "사리앙": 6108,
      "실버원터치귀걸이": 6109,
      "리본레깅스": 6110,
      "107": 6111,
      "체크슈트": 6112,
      "곰돌이키링": 6113,
      "골덴바지": 6114,
      "와플팬츠": 6115,
      "프리미": 6116,
      "수채화": 6117,
      "작은아씨들": 6118,
      "HIT": 6119,
      "y2k": 6120,
      "고디스": 6121,
      "곰세마리": 6122,
      "극세사": 6123,
      "꽃밭": 6124,
      "러치": 6125,
      "루아": 6126,
      "만두": 6127,
      "법랑": 6128,
      "보르": 6129,
      "불가": 6130,
      "에메": 6131,
      "온미": 6132,
      "청배기": 6133,
      "항암": 6134,
      "신발꾸미": 6135,
      "니트원피스": 6136,
      "골지니삭스": 6137,
      "머그컵": 6138,
      "아크릴반지": 6139,
      "아이짱키즈": 6140,
      "ear": 6141,
      "반묶음집게핀": 6142,
      "꽃이다": 6143,
      "신발꾸미개": 6144,
      "BG": 6145,
      "IAM": 6146,
      "OU": 6147,
      "The": 6148,
      "bl": 6149,
      "구찌": 6150,
      "막대": 6151,
      "몽젤로": 6152,
      "밑단": 6153,
      "바둑": 6154,
      "비숑": 6155,
      "샤벳": 6156,
      "스피너": 6157,
      "카메": 6158,
      "페브릭": 6159,
      "레이스블라우스": 6160,
      "인형옷": 6161,
      "배색세트": 6162,
      "주름치마": 6163,
      "꼬리리본": 6164,
      "의류_남성상의_기타": 6165,
      "꽃_부자재_바구니": 6166,
      "날날이티": 6167,
      "프라다": 6168,
      "프리미엄": 6169,
      "402": 6170,
      "LT": 6171,
      "iv": 6172,
      "고고": 6173,
      "뉴엔": 6174,
      "로니": 6175,
      "무디": 6176,
      "블록": 6177,
      "빠삐": 6178,
      "실키": 6179,
      "엘르": 6180,
      "으로": 6181,
      "초록": 6182,
      "트맨투맨": 6183,
      "미니멜로": 6184,
      "아이비": 6185,
      "크림젤": 6186,
      "17x": 6187,
      "젤리곰": 6188,
      "밴딩팬츠": 6189,
      "보들보들": 6190,
      "로로블리": 6191,
      "6개세트": 6192,
      "한정세일": 6193,
      "TYPE": 6194,
      "연세우성": 6195,
      "반려동물_패션잡화_케이프": 6196,
      "뉴엔온미": 6197,
      "7cm": 6198,
      "SL": 6199,
      "글런": 6200,
      "네키": 6201,
      "라일": 6202,
      "롱리본": 6203,
      "수산": 6204,
      "요꼬": 6205,
      "투턱": 6206,
      "한미": 6207,
      "진주포인트": 6208,
      "체크반바지": 6209,
      "용기_양념통": 6210,
      "주방용품_주방조리도구_팬": 6211,
      "뷰티미용_주얼리소품_보관함": 6212,
      "모니카": 6213,
      "프린팅": 6214,
      "이너티": 6215,
      "비엔나": 6216,
      "글로리": 6217,
      "에나멜": 6218,
      "헤링본": 6219,
      "DI": 6220,
      "노리개": 6221,
      "루프": 6222,
      "몸빼": 6223,
      "버섯": 6224,
      "보틀": 6225,
      "살랑": 6226,
      "스투": 6227,
      "앤니나": 6228,
      "엠앤": 6229,
      "완료": 6230,
      "우니": 6231,
      "제시": 6232,
      "짚업": 6233,
      "카리": 6234,
      "카툰": 6235,
      "크랙": 6236,
      "폴앤니나": 6237,
      "잡화_완구": 6238,
      "2023봄": 6239,
      "140": 6240,
      "코튼모달": 6241,
      "러브티": 6242,
      "썸머가디건": 6243,
      "부츠컷바지": 6244,
      "ST티": 6245,
      "5족세트양말": 6246,
      "퀼팅점퍼": 6247,
      "에이치에스": 6248,
      "보카시": 6249,
      "탁상시계": 6250,
      "건조대": 6251,
      "E10": 6252,
      "꼬불": 6253,
      "논슬립": 6254,
      "발목": 6255,
      "벚꽃": 6256,
      "부들": 6257,
      "사파이어": 6258,
      "성탄": 6259,
      "수박": 6260,
      "앞머리핀": 6261,
      "어드": 6262,
      "일제": 6263,
      "퇴치": 6264,
      "페리": 6265,
      "헤어밴드세트": 6266,
      "포켓바지": 6267,
      "카고조거팬츠": 6268,
      "퍼프원피스": 6269,
      "주방용품_주방조리도구_칼": 6270,
      "all": 6271,
      "그루밍": 6272,
      "여행용": 6273,
      "커팅기구": 6274,
      "아이언맨": 6275,
      "112": 6276,
      "3c": 6277,
      "8인치": 6278,
      "T자": 6279,
      "그래": 6280,
      "델리": 6281,
      "도어": 6282,
      "레베": 6283,
      "목욕": 6284,
      "반머리": 6285,
      "발포": 6286,
      "베스": 6287,
      "비키니": 6288,
      "실켓": 6289,
      "씨씨": 6290,
      "이슈트": 6291,
      "자리": 6292,
      "지오": 6293,
      "청원피스": 6294,
      "토끼상하": 6295,
      "헤어핀_": 6296,
      "치마세트": 6297,
      "LOVE": 6298,
      "에이치에스피어싱": 6299,
      "311": 6300,
      "RO": 6301,
      "bo": 6302,
      "깔깔": 6303,
      "대나무": 6304,
      "랄드": 6305,
      "소스": 6306,
      "신흥": 6307,
      "열매": 6308,
      "쥬키니": 6309,
      "세트귀걸이": 6310,
      "108": 6311,
      "니트베스트": 6312,
      "플라스틱": 6313,
      "레이어드원피스": 6314,
      "블랙빈베베": 6315,
      "플리츠세트": 6316,
      "주방용품_주방조리도구_주전자": 6317,
      "누빔조끼": 6318,
      "덧신세트": 6319,
      "네이션": 6320,
      "2차": 6321,
      "2000": 6322,
      "4컬러": 6323,
      "CO": 6324,
      "ha": 6325,
      "마미": 6326,
      "몽쁘띠": 6327,
      "미유": 6328,
      "반스": 6329,
      "발렌": 6330,
      "언커먼": 6331,
      "웨이즈": 6332,
      "웨스트": 6333,
      "이나": 6334,
      "힙한": 6335,
      "악세사리_귀걸이_골드": 6336,
      "레이싱": 6337,
      "아이방": 6338,
      "큐빅진주": 6339,
      "003": 6340,
      "기모조거팬츠": 6341,
      "반려동물_하우스": 6342,
      "아동복_기타_시즌": 6343,
      "10개1세트": 6344,
      "올리마켓": 6345,
      "2세트신꾸": 6346,
      "스테인": 6347,
      "리빙용품_": 6348,
      "에메랄드": 6349,
      "몽쁘띠베베": 6350,
      "아동복_기타_시즌용품": 6351,
      "가는": 6352,
      "고나": 6353,
      "구멍": 6354,
      "달고나": 6355,
      "대리": 6356,
      "드티": 6357,
      "롱패딩": 6358,
      "면스판": 6359,
      "반타이즈": 6360,
      "반투명": 6361,
      "보온": 6362,
      "복조리": 6363,
      "상큼": 6364,
      "숫자": 6365,
      "야외": 6366,
      "예나": 6367,
      "용량": 6368,
      "우븐": 6369,
      "윌리": 6370,
      "제주": 6371,
      "토들러": 6372,
      "파니": 6373,
      "베베티": 6374,
      "토끼실내복": 6375,
      "oli": 6376,
      "꼬임집게핀": 6377,
      "고양이키링": 6378,
      "캉캉치마바지": 6379,
      "7부팬츠": 6380,
      "파인애플": 6381,
      "에폭스마트톡_": 6382,
      "전사티": 6383,
      "츄리닝": 6384,
      "산리5": 6385,
      "이한셋트": 6386,
      "블랭킷": 6387,
      "대리석": 6388,
      "CP": 6389,
      "Riv": 6390,
      "기프트": 6391,
      "네트": 6392,
      "라파": 6393,
      "란스": 6394,
      "로벨": 6395,
      "마랑": 6396,
      "멜방": 6397,
      "미스": 6398,
      "베르": 6399,
      "스무디": 6400,
      "앓이": 6401,
      "유앤아이": 6402,
      "휴가": 6403,
      "리본진주": 6404,
      "큐빅포인트": 6405,
      "진주꽃": 6406,
      "002": 6407,
      "배색원피스": 6408,
      "30cm": 6409,
      "버터플라이": 6410,
      "클라우드": 6411,
      "손가락장갑": 6412,
      "드로잉": 6413,
      "어린이": 6414,
      "Rivoli": 6415,
      "125": 6416,
      "1박스": 6417,
      "3D": 6418,
      "35x": 6419,
      "5컬러": 6420,
      "HPK": 6421,
      "도브": 6422,
      "두꺼": 6423,
      "뜨게": 6424,
      "모아": 6425,
      "바시티": 6426,
      "빼빼로": 6427,
      "시어": 6428,
      "엠마": 6429,
      "오늘": 6430,
      "오즈": 6431,
      "중절": 6432,
      "중곱창": 6433,
      "크롬": 6434,
      "타원형": 6435,
      "하트진주": 6436,
      "주방용품_주방용품_식기": 6437,
      "체크실내복": 6438,
      "토끼인형": 6439,
      "바나바": 6440,
      "커플룩": 6441,
      "고쟁이팬츠": 6442,
      "쓰리피스": 6443,
      "나이프": 6444,
      "HPKL": 6445,
      "주방용품_주방용품_식기정리": 6446,
      "글이": 6447,
      "금통": 6448,
      "까르르": 6449,
      "나바나바": 6450,
      "러블": 6451,
      "배자": 6452,
      "베라": 6453,
      "설레": 6454,
      "어나": 6455,
      "윙커": 6456,
      "저금통": 6457,
      "철집게": 6458,
      "퍼즐": 6459,
      "양말3P세트": 6460,
      "진주하트": 6461,
      "나염맨투맨": 6462,
      "밍크레깅스": 6463,
      "7부소매": 6464,
      "라이프_생활용품_야외": 6465,
      "그로밍키링": 6466,
      "모기퇴치": 6467,
      "ree": 6468,
      "post": 6469,
      "2023봄신상": 6470,
      "라이프_생활용품_야외용품": 6471,
      "114": 6472,
      "RW": 6473,
      "ed": 6474,
      "그란": 6475,
      "꽃티": 6476,
      "더본": 6477,
      "디너": 6478,
      "라피스": 6479,
      "라그랑": 6480,
      "벽걸이": 6481,
      "왕골": 6482,
      "우딘": 6483,
      "유기": 6484,
      "태슬": 6485,
      "통굽": 6486,
      "투어": 6487,
      "베이비세트": 6488,
      "004": 6489,
      "누빔점퍼": 6490,
      "동글이": 6491,
      "포차코": 6492,
      "3줄": 6493,
      "CA": 6494,
      "MK": 6495,
      "가족": 6496,
      "꼬떼": 6497,
      "꽁꼬떼": 6498,
      "낱개": 6499,
      "너츠": 6500,
      "배앓이": 6501,
      "양가죽": 6502,
      "트티": 6503,
      "틴박스": 6504,
      "해지": 6505,
      "베베_": 6506,
      "라이더": 6507,
      "자수상하": 6508,
      "멜빵블루머": 6509,
      "SE45": 6510,
      "부츠컷레깅스": 6511,
      "공룡맨투맨": 6512,
      "비치타올": 6513,
      "아이보리톤": 6514,
      "알파카": 6515,
      "프레임": 6516,
      "4개1세트": 6517,
      "봉제인형": 6518,
      "휴대용": 6519,
      "떡볶이코트": 6520,
      "도로시": 6521,
      "R5": 6522,
      "ch": 6523,
      "깡총": 6524,
      "꽃슈트": 6525,
      "물컵": 6526,
      "복실": 6527,
      "성우": 6528,
      "수국": 6529,
      "재킷": 6530,
      "캐롤": 6531,
      "클러치": 6532,
      "투링": 6533,
      "푸드": 6534,
      "아동핀": 6535,
      "제이룩": 6536,
      "레이스가디건": 6537,
      "20cm": 6538,
      "포켓스커트": 6539,
      "와이드데님": 6540,
      "비즈목걸이": 6541,
      "리틀콜리": 6542,
      "패브릭_앞치마": 6543,
      "날개티": 6544,
      "로프키링": 6545,
      "에디션": 6546,
      "불가사리": 6547,
      "성우패션": 6548,
      "115": 6549,
      "id": 6550,
      "넥티": 6551,
      "보송": 6552,
      "손목": 6553,
      "왕눈": 6554,
      "요거": 6555,
      "크러쉬": 6556,
      "토스트": 6557,
      "투포켓": 6558,
      "폭신": 6559,
      "풀루": 6560,
      "후라이": 6561,
      "리본가디건": 6562,
      "부자가드": 6563,
      "프릴세트": 6564,
      "프릴스커트": 6565,
      "프릴반바지": 6566,
      "12월": 6567,
      "1200": 6568,
      "데이티": 6569,
      "완구_기타": 6570,
      "세라원피스": 6571,
      "핸드폰고리": 6572,
      "피그티": 6573,
      "더블리본": 6574,
      "아노락상하": 6575,
      "로미쥬리": 6576,
      "네이브": 6577,
      "핸드폰스트랩_": 6578,
      "로망스": 6579,
      "어나더": 6580,
      "301": 6581,
      "3판세트": 6582,
      "PO": 6583,
      "간편": 6584,
      "감자": 6585,
      "리코": 6586,
      "밀집": 6587,
      "색동": 6588,
      "소주": 6589,
      "식빵": 6590,
      "어그": 6591,
      "엘린": 6592,
      "예루": 6593,
      "중년": 6594,
      "카봇": 6595,
      "패션시계": 6596,
      "109": 6597,
      "베어실내복": 6598,
      "자수블라우스": 6599,
      "더블디": 6600,
      "플로럴": 6601,
      "헬로냥": 6602,
      "꽈배기가디건": 6603,
      "2_쥬디": 6604,
      "2p세트": 6605,
      "하나로벨": 6606,
      "([": 6607,
      "공구": 6608,
      "구자": 6609,
      "디어": 6610,
      "랩치마바지": 6611,
      "멍뭉": 6612,
      "면기": 6613,
      "생일": 6614,
      "아카": 6615,
      "앙젤": 6616,
      "오징": 6617,
      "이야": 6618,
      "지에": 6619,
      "청멜빵": 6620,
      "가방걸이": 6621,
      "리본팬츠": 6622,
      "의류_여성상의_자켓": 6623,
      "골지세트": 6624,
      "라인팬츠": 6625,
      "스카시": 6626,
      "밍크털": 6627,
      "트위드자켓": 6628,
      "비치가운": 6629,
      "양기모맨투맨": 6630,
      "3개1세트": 6631,
      "올리브데님": 6632,
      "와인잔": 6633,
      "에이트리": 6634,
      "예루예나": 6635,
      "407": 6636,
      "HJ": 6637,
      "네추럴": 6638,
      "비누": 6639,
      "비타": 6640,
      "샤크": 6641,
      "서브": 6642,
      "세무": 6643,
      "시리얼": 6644,
      "진행": 6645,
      "챔피": 6646,
      "헤드": 6647,
      "2500원": 6648,
      "후드원피스": 6649,
      "리본집게": 6650,
      "양말5족세트": 6651,
      "나시슈트": 6652,
      "제이스토리": 6653,
      "지갑_여행가방": 6654,
      "카고반바지": 6655,
      "5x7": 6656,
      "스케이트": 6657,
      "의류_남성하의_트레이닝": 6658,
      "써티키즈": 6659,
      "엠앤제이스토리": 6660,
      "오징어": 6661,
      "지에랑": 6662,
      "꽁떼": 6663,
      "땡큐": 6664,
      "러빙": 6665,
      "로봇": 6666,
      "민판": 6667,
      "반오픈": 6668,
      "복숭": 6669,
      "순면": 6670,
      "아방": 6671,
      "외선": 6672,
      "켈리": 6673,
      "크립": 6674,
      "포도": 6675,
      "플로라": 6676,
      "행성": 6677,
      "후드조끼": 6678,
      "하트LED": 6679,
      "1023": 6680,
      "단가라T": 6681,
      "치마팬츠": 6682,
      "자동형": 6683,
      "플리츠상하": 6684,
      "ini": 6685,
      "OPL": 6686,
      "투톤레깅스": 6687,
      "SSBT4": 6688,
      "바로크": 6689,
      "포레스트": 6690,
      "벙어리장갑": 6691,
      "빠삐용": 6692,
      "2판세트": 6693,
      "가넷": 6694,
      "귀다리": 6695,
      "데미": 6696,
      "립삭스": 6697,
      "쏠트": 6698,
      "웃는": 6699,
      "크런치": 6700,
      "태닝": 6701,
      "반지진열대": 6702,
      "리본귀걸이": 6703,
      "리본머리끈": 6704,
      "하트집게핀": 6705,
      "아이리스": 6706,
      "니트맨투맨": 6707,
      "플라워티": 6708,
      "하이냥": 6709,
      "121": 6710,
      "밀크티": 6711,
      "일자옆핀": 6712,
      "코듀로이팬츠": 6713,
      "파이핑": 6714,
      "shi": 6715,
      "스토리원": 6716,
      "골든트리": 6717,
      "3000": 6718,
      "3미리": 6719,
      "Cu": 6720,
      "ad": 6721,
      "nt": 6722,
      "곰실내복": 6723,
      "드라이": 6724,
      "메모": 6725,
      "몽블랑": 6726,
      "민스": 6727,
      "빨강": 6728,
      "세상": 6729,
      "소피": 6730,
      "스네이": 6731,
      "에펠": 6732,
      "오케이": 6733,
      "올데이": 6734,
      "원볼": 6735,
      "자외선": 6736,
      "줄지": 6737,
      "진실버": 6738,
      "츄츄": 6739,
      "텐션": 6740,
      "프티": 6741,
      "헨리": 6742,
      "아동용": 6743,
      "스트레이": 6744,
      "진주팔찌": 6745,
      "레이스헤어밴드": 6746,
      "신상볼캡": 6747,
      "크로버": 6748,
      "크로쉐": 6749,
      "코코넛": 6750,
      "블랑블랑": 6751,
      "오누이": 6752,
      "아일렛티": 6753,
      "트라이앵글": 6754,
      "2선": 6755,
      "까리노": 6756,
      "꽃양말세트": 6757,
      "난이": 6758,
      "노르": 6759,
      "레그": 6760,
      "로드": 6761,
      "면반바지": 6762,
      "선글": 6763,
      "어몽": 6764,
      "외출": 6765,
      "월넛": 6766,
      "유치": 6767,
      "잉크": 6768,
      "자연": 6769,
      "전통": 6770,
      "중청": 6771,
      "한송이": 6772,
      "핸펀": 6773,
      "니트팬츠": 6774,
      "005": 6775,
      "체크블라우스": 6776,
      "기모원피스": 6777,
      "골지비니": 6778,
      "14mm": 6779,
      "배색바지": 6780,
      "160": 6781,
      "꼬임특대": 6782,
      "트로피": 6783,
      "에이블샾": 6784,
      "지퍼백": 6785,
      "프레즐": 6786,
      "전신슈트": 6787,
      "레저_수영복": 6788,
      "앙젤롯": 6789,
      "유치원": 6790,
      "곰세트": 6791,
      "냅킨": 6792,
      "대용량": 6793,
      "두겹": 6794,
      "면배기": 6795,
      "바론": 6796,
      "써머": 6797,
      "엘레": 6798,
      "여우": 6799,
      "전화": 6800,
      "칠부": 6801,
      "카먼": 6802,
      "캐치": 6803,
      "쿠앤": 6804,
      "파베": 6805,
      "햄버거": 6806,
      "악세사리_헤어": 6807,
      "아이쿠": 6808,
      "체크세트": 6809,
      "사각큐빅": 6810,
      "117": 6811,
      "코코얀": 6812,
      "가죽팔찌": 6813,
      "리틀비": 6814,
      "파자마세트": 6815,
      "개당500원": 6816,
      "메쉬삭스": 6817,
      "비치미": 6818,
      "벌룬스커트": 6819,
      "470": 6820,
      "페이퍼베베": 6821,
      "사이드핀": 6822,
      "12개1세트": 6823,
      "1줄세트": 6824,
      "써티아이": 6825,
      "box": 6826,
      "꽁떼레베": 6827,
      "크립토": 6828,
      "악세사리_헤어악세사리_기타": 6829,
      "404": 6830,
      "Y8": 6831,
      "YE": 6832,
      "고글": 6833,
      "국화": 6834,
      "글래": 6835,
      "깃털": 6836,
      "까지": 6837,
      "나키": 6838,
      "레트": 6839,
      "로켓": 6840,
      "뱃지": 6841,
      "블로퍼": 6842,
      "소풍": 6843,
      "스페": 6844,
      "아디": 6845,
      "오타리": 6846,
      "옥스포": 6847,
      "웨스턴": 6848,
      "이크": 6849,
      "타입": 6850,
      "타탄": 6851,
      "퍼드": 6852,
      "흑운": 6853,
      "후드자켓": 6854,
      "베베몽드": 6855,
      "써지컬목걸이": 6856,
      "1019": 6857,
      "니트비니": 6858,
      "제이카먼": 6859,
      "아이스크림티": 6860,
      "KRHB": 6861,
      "연결구자": 6862,
      "줄리아브로치": 6863,
      "탄생석": 6864,
      "라피스라": 6865,
      "PG": 6866,
      "SJ": 6867,
      "sale": 6868,
      "러너": 6869,
      "레르": 6870,
      "레옹": 6871,
      "로엔": 6872,
      "분리": 6873,
      "뿅뿅": 6874,
      "색종이": 6875,
      "수량": 6876,
      "스러운": 6877,
      "올라": 6878,
      "이미": 6879,
      "인터": 6880,
      "지구": 6881,
      "쵸코": 6882,
      "테스트": 6883,
      "풍기": 6884,
      "해피스": 6885,
      "베이글": 6886,
      "아이브": 6887,
      "마이멜로디": 6888,
      "와플세트": 6889,
      "일자핀": 6890,
      "파티푸": 6891,
      "워싱티": 6892,
      "깔깔이": 6893,
      "두꺼운": 6894,
      "5색": 6895,
      "8자": 6896,
      "LU": 6897,
      "SI": 6898,
      "_악세서리": 6899,
      "_투피스": 6900,
      "sp": 6901,
      "겨을": 6902,
      "그레": 6903,
      "나사": 6904,
      "내친구": 6905,
      "로코": 6906,
      "면마": 6907,
      "미아": 6908,
      "아뜰리에": 6909,
      "아몬드": 6910,
      "아보카": 6911,
      "왕국": 6912,
      "쟈켓": 6913,
      "착샷": 6914,
      "캐쥬얼": 6915,
      "폴리스": 6916,
      "23겨을": 6917,
      "헤어장식": 6918,
      "악세서리_악세서리": 6919,
      "아동복_원피스_투피스": 6920,
      "1015": 6921,
      "니트베레모": 6922,
      "반려동물_신발": 6923,
      "바이크": 6924,
      "116": 6925,
      "18cm": 6926,
      "체리티": 6927,
      "미키슈트": 6928,
      "5부반바지": 6929,
      "커피잔": 6930,
      "일본정품": 6931,
      "롬퍼세트": 6932,
      "시그널": 6933,
      "스네이크": 6934,
      "KI": 6935,
      "P실버925": 6936,
      "SC": 6937,
      "VER": 6938,
      "들이": 6939,
      "라꼬": 6940,
      "루이스": 6941,
      "명품": 6942,
      "못난이": 6943,
      "순은": 6944,
      "슬로우": 6945,
      "유희": 6946,
      "일러": 6947,
      "차이나": 6948,
      "티라노": 6949,
      "파도": 6950,
      "프링": 6951,
      "플린": 6952,
      "실버링": 6953,
      "가방키홀더": 6954,
      "가방꾸미기": 6955,
      "리본슈트": 6956,
      "베이비돌": 6957,
      "신발장식": 6958,
      "여성모자": 6959,
      "10종": 6960,
      "10인치": 6961,
      "큐빅귀걸이": 6962,
      "기모티": 6963,
      "122": 6964,
      "데이맨투맨": 6965,
      "119": 6966,
      "오뜨베베겨울": 6967,
      "와플슈트": 6968,
      "유니버스": 6969,
      "5x2": 6970,
      "더블유": 6971,
      "테이션": 6972,
      "40cm": 6973,
      "라이프_생활용품_청소": 6974,
      "스와르": 6975,
      "KRBT4": 6976,
      "오리털패딩": 6977,
      "세탁용품": 6978,
      "설레발": 6979,
      "복숭아": 6980,
      "아보카도": 6981,
      "유희왕": 6982,
      "4세트": 6983,
      "401": 6984,
      "9cm": 6985,
      "LK": 6986,
      "N9": 6987,
      "PP": 6988,
      "넥워머": 6989,
      "노엘": 6990,
      "단색": 6991,
      "달링": 6992,
      "레고": 6993,
      "발바닥": 6994,
      "사이": 6995,
      "생지": 6996,
      "샤베트": 6997,
      "선택": 6998,
      "수염": 6999,
      "야미": 7000,
      "위생": 7001,
      "잔줄": 7002,
      "카치": 7003,
      "실버침": 7004,
      "레이나": 7005,
      "단가라나시": 7006,
      "강아지키링": 7007,
      "엠보싱": 7008,
      "하나패션": 7009,
      "속바지있음": 7010,
      "젓가락받침": 7011,
      "봉주르": 7012,
      "통과형": 7013,
      "요거트": 7014,
      "(+": 7015,
      "124": 7016,
      "4type": 7017,
      "7_": 7018,
      "IW": 7019,
      "꽃향": 7020,
      "다크": 7021,
      "렛츠": 7022,
      "먼작": 7023,
      "명성": 7024,
      "세이프": 7025,
      "양쪽": 7026,
      "요가": 7027,
      "이선": 7028,
      "카네이션": 7029,
      "투반도": 7030,
      "포인": 7031,
      "황금": 7032,
      "230": 7033,
      "실버이어링": 7034,
      "미니미": 7035,
      "니트슈트": 7036,
      "데일리데이트": 7037,
      "180": 7038,
      "퍼프소매": 7039,
      "머플러목도리": 7040,
      "개당6": 7041,
      "셔링원피스": 7042,
      "의류_여성아우터_실내화": 7043,
      "아노락맨투맨": 7044,
      "페이퍼스튜디오": 7045,
      "기능화": 7046,
      "파일럿": 7047,
      "캠퍼스": 7048,
      "라피스라줄리": 7049,
      "먼작귀": 7050,
      "AA": 7051,
      "R6": 7052,
      "_C": 7053,
      "계란": 7054,
      "보스톤": 7055,
      "비엠": 7056,
      "생화": 7057,
      "케어": 7058,
      "키고리": 7059,
      "터리": 7060,
      "파스": 7061,
      "폰고리": 7062,
      "풀오버": 7063,
      "프스": 7064,
      "히든": 7065,
      "리본끈": 7066,
      "하트레깅스": 7067,
      "진주집게핀": 7068,
      "나시블라우스": 7069,
      "데님멜빵": 7070,
      "카라상하": 7071,
      "기모세트": 7072,
      "인형고리": 7073,
      "201": 7074,
      "클로이": 7075,
      "핸드폰악세사리": 7076,
      "홀터넥": 7077,
      "피오니": 7078,
      "(*": 7079,
      "6부팬츠": 7080,
      "별빛": 7081,
      "오발": 7082,
      "오색": 7083,
      "와치": 7084,
      "워시": 7085,
      "입술": 7086,
      "자민": 7087,
      "지우": 7088,
      "피트": 7089,
      "호일": 7090,
      "리본하트": 7091,
      "아이들": 7092,
      "체크주름스커트": 7093,
      "한복슈트": 7094,
      "배색레깅스": 7095,
      "꽃_부자재_기타": 7096,
      "113": 7097,
      "130": 7098,
      "린넨가디건": 7099,
      "30개": 7100,
      "STN": 7101,
      "5x3": 7102,
      "셔링블라우스": 7103,
      "딸기티": 7104,
      "3500": 7105,
      "주방용품_주방용품_수세미": 7106,
      "튜튜스커트": 7107,
      "_YN": 7108,
      "페이크퍼": 7109,
      "이브닝": 7110,
      "슬리브리스": 7111,
      "bebe": 7112,
      "가파치스포츠": 7113,
      "드로즈팬티": 7114,
      "쿠앤크": 7115,
      "3중": 7116,
      "AD": 7117,
      "LB": 7118,
      "MY": 7119,
      "Set": 7120,
      "ro": 7121,
      "두기": 7122,
      "라푼": 7123,
      "롱목걸이": 7124,
      "베티": 7125,
      "부스터": 7126,
      "비쥬": 7127,
      "샤치랭스": 7128,
      "앤버터": 7129,
      "에리": 7130,
      "웰컴": 7131,
      "위시": 7132,
      "코니": 7133,
      "트레": 7134,
      "티제이": 7135,
      "틴케이스": 7136,
      "페인트": 7137,
      "피플": 7138,
      "레이디": 7139,
      "여성양말": 7140,
      "상하set": 7141,
      "1016": 7142,
      "블루버킷": 7143,
      "레이스머리띠": 7144,
      "배색점퍼": 7145,
      "126": 7146,
      "러브햇": 7147,
      "골덴원피스": 7148,
      "세라베베": 7149,
      "와플가디건": 7150,
      "일자바지": 7151,
      "공룡상하": 7152,
      "패브릭_행주": 7153,
      "7부바지": 7154,
      "40x": 7155,
      "브라우니": 7156,
      "퀼팅자켓": 7157,
      "패밀리룩": 7158,
      "미시간": 7159,
      "이미테이션": 7160,
      "2미리": 7161,
      "Ju": 7162,
      "XS": 7163,
      "데뜨": 7164,
      "라헬": 7165,
      "렉션": 7166,
      "룰루": 7167,
      "멜란": 7168,
      "물놀이": 7169,
      "반원": 7170,
      "방긋": 7171,
      "불꽃": 7172,
      "브드": 7173,
      "사운드": 7174,
      "시스트": 7175,
      "아메리": 7176,
      "알로": 7177,
      "엣루나": 7178,
      "윈디": 7179,
      "유어": 7180,
      "이자": 7181,
      "카지": 7182,
      "카티": 7183,
      "터틀": 7184,
      "털모자": 7185,
      "티파니": 7186,
      "퍼티": 7187,
      "프림": 7188,
      "햇빛": 7189,
      "진주핀": 7190,
      "006": 7191,
      "골지원피스": 7192,
      "스타실버": 7193,
      "코코아": 7194,
      "바바리": 7195,
      "베스트은침귀걸이": 7196,
      "절개티": 7197,
      "스쿨룩": 7198,
      "ABC": 7199,
      "캣츠아이": 7200,
      "HTSH": 7201,
      "개당300원": 7202,
      "4단": 7203,
      "992": 7204,
      "V넥": 7205,
      "등리본": 7206,
      "디토": 7207,
      "벨리": 7208,
      "브래": 7209,
      "비행기": 7210,
      "사슬": 7211,
      "서빙": 7212,
      "신호": 7213,
      "실번": 7214,
      "썬햇": 7215,
      "앞뒤": 7216,
      "어시스트": 7217,
      "은하": 7218,
      "이불": 7219,
      "쫀득": 7220,
      "텐우드": 7221,
      "텐토우": 7222,
      "트랜": 7223,
      "티엠": 7224,
      "티스푼": 7225,
      "팡팡": 7226,
      "118": 7227,
      "와플조거팬츠": 7228,
      "패션잡화_여성신발_기능화": 7229,
      "장미석": 7230,
      "2개1쌍": 7231,
      "레터링티": 7232,
      "피넛앤버터": 7233,
      "TAP": 7234,
      "남자모자": 7235,
      "아메카지": 7236,
      "ound": 7237,
      "소세지팬츠": 7238,
      "카메라": 7239,
      "몸빼바지": 7240,
      "그루밍키링": 7241,
      "서브백": 7242,
      "웃는달": 7243,
      "신호등": 7244,
      "!!": 7245,
      "350ml": 7246,
      "409": 7247,
      "ap": 7248,
      "각인": 7249,
      "국자": 7250,
      "귀돌이": 7251,
      "꿀벌": 7252,
      "대접": 7253,
      "멜리": 7254,
      "벤자민": 7255,
      "사은": 7256,
      "소음": 7257,
      "얼룩": 7258,
      "유럽": 7259,
      "인드": 7260,
      "조조": 7261,
      "타조": 7262,
      "페이드": 7263,
      "핀1": 7264,
      "하루": 7265,
      "화섬": 7266,
      "리본삔": 7267,
      "아동복_베이비_실내복": 7268,
      "프릴바지": 7269,
      "프릴조끼": 7270,
      "머리핀2종": 7271,
      "집업세트": 7272,
      "래빗맨투맨": 7273,
      "핸드폰가방": 7274,
      "프리마": 7275,
      "일자청": 7276,
      "망사커즈": 7277,
      "유리병": 7278,
      "고쟁이바지": 7279,
      "트렌치코트": 7280,
      "잉크젤펜": 7281,
      "사은품": 7282,
      "1카드": 7283,
      "501": 7284,
      "6족세트": 7285,
      "HTAP": 7286,
      "_01": 7287,
      "군밤": 7288,
      "몰랑": 7289,
      "바위": 7290,
      "비드": 7291,
      "샌디": 7292,
      "샤랄라": 7293,
      "왕집게핀": 7294,
      "외줄": 7295,
      "쫑긋": 7296,
      "풋볼": 7297,
      "허브": 7298,
      "헤어고무": 7299,
      "하트하트": 7300,
      "미니포켓": 7301,
      "데님조끼": 7302,
      "골지부츠컷": 7303,
      "135": 7304,
      "보넷별도": 7305,
      "SE33": 7306,
      "로즈쿼츠": 7307,
      "미키티": 7308,
      "의류_여성아우터_코트": 7309,
      "헤이즐": 7310,
      "파이브": 7311,
      "BJ16": 7312,
      "4P세트": 7313,
      "스위티": 7314,
      "5P세트": 7315,
      "플로리브로치": 7316,
      "화장품": 7317,
      "커스텀": 7318,
      "DIY": 7319,
      "라헬B": 7320,
      "1단": 7321,
      "4부팬츠": 7322,
      "4470": 7323,
      "AR": 7324,
      "BZ": 7325,
      "CE": 7326,
      "ig": 7327,
      "kg": 7328,
      "rt": 7329,
      "깜보": 7330,
      "꾸러": 7331,
      "끌레르": 7332,
      "누이": 7333,
      "니티": 7334,
      "를린": 7335,
      "무발": 7336,
      "반스타킹": 7337,
      "백조": 7338,
      "브레": 7339,
      "수리": 7340,
      "승마": 7341,
      "옆머리": 7342,
      "옐로": 7343,
      "오알": 7344,
      "원가이": 7345,
      "의자": 7346,
      "전거": 7347,
      "종교": 7348,
      "짱짱": 7349,
      "코카": 7350,
      "통가죽": 7351,
      "평비닐": 7352,
      "피자": 7353,
      "흰둥이": 7354,
      "베이비쨈": 7355,
      "플라잉": 7356,
      "의류_여성상의_스포츠": 7357,
      "하이틴": 7358,
      "케이씨씨": 7359,
      "132": 7360,
      "바닐라버니여름": 7361,
      "SS29": 7362,
      "은목걸이_YN": 7363,
      "반집업맨투맨": 7364,
      "달콤하이": 7365,
      "번개걸": 7366,
      "꼬불이": 7367,
      "shion": 7368,
      "원가이하": 7369,
      "의류_여성상의_스포츠의류": 7370,
      "4c": 7371,
      "4미리": 7372,
      "A라인": 7373,
      "BAB": 7374,
      "NP": 7375,
      "Round": 7376,
      "견주": 7377,
      "공방": 7378,
      "귀염": 7379,
      "꼬모": 7380,
      "내수": 7381,
      "메이트": 7382,
      "목폴라티": 7383,
      "미모": 7384,
      "버즈": 7385,
      "보더": 7386,
      "비너": 7387,
      "서커": 7388,
      "솔트": 7389,
      "썬샤인": 7390,
      "안녕": 7391,
      "옆리본": 7392,
      "오데뜨": 7393,
      "옥스": 7394,
      "와친구들": 7395,
      "자전거": 7396,
      "제나": 7397,
      "젠틀": 7398,
      "찍이": 7399,
      "청치마바지": 7400,
      "필수": 7401,
      "하찌": 7402,
      "패션소품": 7403,
      "겨울왕국": 7404,
      "베베팬츠": 7405,
      "리본니삭스": 7406,
      "큐빅반지": 7407,
      "데일리팬츠": 7408,
      "라이프_홈데코소품_종교": 7409,
      "키즈_": 7410,
      "레이스양말": 7411,
      "209": 7412,
      "20mm": 7413,
      "반팔T": 7414,
      "반팔실내복": 7415,
      "단가라레깅스": 7416,
      "멜빵세트": 7417,
      "골드도금": 7418,
      "반려동물_패션_패딩": 7419,
      "세라슈트": 7420,
      "5x12": 7421,
      "SS39": 7422,
      "라벨티": 7423,
      "후리스점퍼": 7424,
      "수면양말": 7425,
      "시보리레깅스": 7426,
      "핑거톡": 7427,
      "모루인형": 7428,
      "건강_목욕": 7429,
      "ove": 7430,
      "옥스포드": 7431,
      "꾸러기": 7432,
      "BABY": 7433,
      "라이프_홈데코소품_종교용품": 7434,
      "건강_목욕용품": 7435,
      "..": 7436,
      "219": 7437,
      "3족세트": 7438,
      "4계절": 7439,
      "A컷": 7440,
      "Color": 7441,
      "RE": 7442,
      "Sha": 7443,
      "곰양말세트": 7444,
      "데니": 7445,
      "방짜": 7446,
      "베를린": 7447,
      "볼리": 7448,
      "사자": 7449,
      "소울": 7450,
      "아임": 7451,
      "안느": 7452,
      "올드": 7453,
      "이키링": 7454,
      "찐이야": 7455,
      "차차": 7456,
      "캉스커트": 7457,
      "크린": 7458,
      "타이트": 7459,
      "특한": 7460,
      "티드": 7461,
      "한복_": 7462,
      "할로우": 7463,
      "세트핀": 7464,
      "리본바지": 7465,
      "하트슈트": 7466,
      "스커트상하세트": 7467,
      "009": 7468,
      "제이퀸": 7469,
      "데님오버롤": 7470,
      "모델A컷": 7471,
      "테리반바지": 7472,
      "22w": 7473,
      "16cm": 7474,
      "17cm": 7475,
      "나염원피스": 7476,
      "하프집업": 7477,
      "삼각팬티": 7478,
      "KRBT": 7479,
      "안나카라": 7480,
      "시나몬": 7481,
      "NK9": 7482,
      "요이삭스": 7483,
      "스피넬": 7484,
      "코튼모달슬러브": 7485,
      "레그워머": 7486,
      "엘레강": 7487,
      "꽃향유": 7488,
      "Shape": 7489,
      "2x": 7490,
      "3호": 7491,
      "SO": 7492,
      "ne": 7493,
      "갈피": 7494,
      "까사무": 7495,
      "꼬미": 7496,
      "데일": 7497,
      "랩팬츠": 7498,
      "로코코": 7499,
      "롱롱": 7500,
      "마멜": 7501,
      "미닌": 7502,
      "발소리": 7503,
      "브리즈": 7504,
      "샐리": 7505,
      "생화_": 7506,
      "소소": 7507,
      "슬로우비": 7508,
      "앉은": 7509,
      "에떼": 7510,
      "예스": 7511,
      "옷걸이": 7512,
      "유령": 7513,
      "입은": 7514,
      "저고리": 7515,
      "카프": 7516,
      "카펜더": 7517,
      "클레": 7518,
      "타드": 7519,
      "탈부착": 7520,
      "테마": 7521,
      "트린": 7522,
      "25cm": 7523,
      "스커트세트": 7524,
      "레이온": 7525,
      "주방장": 7526,
      "1020": 7527,
      "용기_도시락": 7528,
      "14cm": 7529,
      "127": 7530,
      "꽃_생화_": 7531,
      "크롭나시": 7532,
      "ore": 7533,
      "보넷슈트": 7534,
      "수영모": 7535,
      "블랙빈키즈": 7536,
      "21x": 7537,
      "7부레깅스": 7538,
      "셋업타이즈": 7539,
      "스프레이": 7540,
      "쿠션컷": 7541,
      "네코슈즈": 7542,
      "불빛상하": 7543,
      "스테인레스": 7544,
      "Cushion": 7545,
      "해피스마일": 7546,
      "개당600원": 7547,
      "307": 7548,
      "406": 7549,
      "DS": 7550,
      "가득": 7551,
      "나드리": 7552,
      "남매": 7553,
      "라마": 7554,
      "레디": 7555,
      "리플": 7556,
      "미라": 7557,
      "보호": 7558,
      "샬롯": 7559,
      "신사": 7560,
      "에니": 7561,
      "요일": 7562,
      "저그": 7563,
      "중대": 7564,
      "즈티": 7565,
      "책갈피": 7566,
      "페미닌": 7567,
      "포에버": 7568,
      "퐁당": 7569,
      "세트상하": 7570,
      "리본토끼": 7571,
      "라이언": 7572,
      "미니꽃": 7573,
      "조끼세트": 7574,
      "플라워자수": 7575,
      "단가라티셔츠": 7576,
      "137": 7577,
      "세라티": 7578,
      "모어비": 7579,
      "올리바": 7580,
      "트위드원피스": 7581,
      "바니티": 7582,
      "바비키링": 7583,
      "수저세트": 7584,
      "제품컷": 7585,
      "휴대폰": 7586,
      "베이커리": 7587,
      "Y2K키링_": 7588,
      "인어공주": 7589,
      "서지컬목걸이": 7590,
      "노르딕": 7591,
      "엘레강스": 7592,
      "4cm": 7593,
      "COM": 7594,
      "달마시": 7595,
      "드랍": 7596,
      "따뜻": 7597,
      "렝땅": 7598,
      "로티": 7599,
      "브런치": 7600,
      "쁘앙": 7601,
      "사틴": 7602,
      "소라": 7603,
      "알렌": 7604,
      "에밋": 7605,
      "에비": 7606,
      "옆집게핀": 7607,
      "유아동": 7608,
      "잇츠": 7609,
      "조바위": 7610,
      "직기": 7611,
      "컬리": 7612,
      "테파": 7613,
      "풍경": 7614,
      "핀코트": 7615,
      "하드": 7616,
      "리본목걸이": 7617,
      "하트링": 7618,
      "진주반지": 7619,
      "007": 7620,
      "레이스카라": 7621,
      "카라셔츠": 7622,
      "골지날라리": 7623,
      "베어자수": 7624,
      "20수": 7625,
      "모델착샷": 7626,
      "라운지": 7627,
      "136": 7628,
      "린넨반바지": 7629,
      "미키맨투맨": 7630,
      "밍크퍼": 7631,
      "고무밴드": 7632,
      "주머니티": 7633,
      "랍빠팬츠": 7634,
      "주방용품_주방용품_덮개": 7635,
      "프레쉬": 7636,
      "큐트봉봉": 7637,
      "내열유리": 7638,
      "배냇세트": 7639,
      "라일락": 7640,
      "왕눈이": 7641,
      "까사무띠": 7642,
      "3선": 7643,
      "405": 7644,
      "HPE": 7645,
      "im": 7646,
      "고잉": 7647,
      "귓볼": 7648,
      "귤러": 7649,
      "들꽃": 7650,
      "로랑": 7651,
      "린다제이": 7652,
      "마틴": 7653,
      "모크": 7654,
      "몽쉘": 7655,
      "바벨": 7656,
      "바퀴": 7657,
      "반머리집게핀": 7658,
      "버전": 7659,
      "샤슈트": 7660,
      "송치": 7661,
      "스지": 7662,
      "스키즈": 7663,
      "아로마": 7664,
      "엔조이": 7665,
      "요요": 7666,
      "윙크": 7667,
      "은세상": 7668,
      "커비": 7669,
      "토깽": 7670,
      "톤톤": 7671,
      "️특가": 7672,
      "23cm": 7673,
      "세트반지": 7674,
      "베베러브": 7675,
      "드롭이어링": 7676,
      "배색후드": 7677,
      "배색조거팬츠": 7678,
      "129": 7679,
      "12인치": 7680,
      "올리누이": 7681,
      "샤샤슈슈": 7682,
      "오스트리아스톤": 7683,
      "마마스파파소품": 7684,
      "네임택": 7685,
      "달마시안": 7686,
      "렝땅은세상": 7687,
      "HPEB": 7688,
      "4set": 7689,
      "6_": 7690,
      "SW": 7691,
      "sm": 7692,
      "그런": 7693,
      "나르": 7694,
      "담요": 7695,
      "대두기": 7696,
      "레귤러": 7697,
      "리는": 7698,
      "맥시": 7699,
      "머핀": 7700,
      "버들": 7701,
      "샤론": 7702,
      "숏바지": 7703,
      "스민": 7704,
      "슬릿": 7705,
      "앙팡": 7706,
      "온리": 7707,
      "요술": 7708,
      "은귀걸이_": 7709,
      "음료": 7710,
      "인도": 7711,
      "지젤": 7712,
      "찰리": 7713,
      "트리오": 7714,
      "피아노": 7715,
      "한비": 7716,
      "허쉬": 7717,
      "형제": 7718,
      "원피스슈트": 7719,
      "실버이어커프": 7720,
      "미니집게": 7721,
      "니트보넷": 7722,
      "부자재_주문제작": 7723,
      "동물원": 7724,
      "프릴나시": 7725,
      "쁘띠리본": 7726,
      "142": 7727,
      "133": 7728,
      "SE3": 7729,
      "오뜨베베여름": 7730,
      "스포티": 7731,
      "와플맨투맨": 7732,
      "완구_피규어": 7733,
      "개당1000원": 7734,
      "꽈배기니트": 7735,
      "테니스스커트": 7736,
      "베베나인키즈": 7737,
      "스텐드": 7738,
      "ab15": 7739,
      "안개꽃": 7740,
      "5족이한셋트": 7741,
      "집개핀": 7742,
      "어드벤": 7743,
      "투어마린": 7744,
      "서지컬목걸이A": 7745,
      "대두기업": 7746,
      "2cm": 7747,
      "CL": 7748,
      "가시": 7749,
      "군모": 7750,
      "금장": 7751,
      "기린": 7752,
      "나그": 7753,
      "나래": 7754,
      "나바론": 7755,
      "다락": 7756,
      "마놀": 7757,
      "무이": 7758,
      "문양": 7759,
      "미어": 7760,
      "미의": 7761,
      "발리": 7762,
      "베일": 7763,
      "보조": 7764,
      "비죠": 7765,
      "선반": 7766,
      "슬아": 7767,
      "심쿵": 7768,
      "쏠엣루나": 7769,
      "웨하": 7770,
      "율미의": 7771,
      "저브드": 7772,
      "주사": 7773,
      "클라라": 7774,
      "태진": 7775,
      "함께": 7776,
      "아동복_상하복세트_기타": 7777,
      "하트가디건": 7778,
      "미니키링": 7779,
      "1005": 7780,
      "1006": 7781,
      "레이스나시": 7782,
      "카라반팔티": 7783,
      "배색캡": 7784,
      "128": 7785,
      "바이올": 7786,
      "1987": 7787,
      "퍼프블라우스": 7788,
      "바닐라버니가을": 7789,
      "프리저브드": 7790,
      "긴팔세트": 7791,
      "바람난": 7792,
      "슬림핏": 7793,
      "루즈티": 7794,
      "레오타드": 7795,
      "시보리티": 7796,
      "500ml": 7797,
      "큐롯팬츠": 7798,
      "10_오투": 7799,
      "중절모": 7800,
      "라푼젤": 7801,
      "다락방": 7802,
      "800": 7803,
      "8부팬츠": 7804,
      "E신흥": 7805,
      "GO": 7806,
      "HM": 7807,
      "LS": 7808,
      "ND": 7809,
      "PU": 7810,
      "_02": 7811,
      "mas": 7812,
      "굿럭": 7813,
      "꾸안": 7814,
      "나리": 7815,
      "나우": 7816,
      "노아": 7817,
      "독특한": 7818,
      "뒷트임": 7819,
      "라지": 7820,
      "메이비": 7821,
      "멜론": 7822,
      "배변": 7823,
      "안젤라": 7824,
      "앙쥬": 7825,
      "우유": 7826,
      "조합": 7827,
      "짝꿍": 7828,
      "테스": 7829,
      "핑키": 7830,
      "홈애니": 7831,
      "가을겨울신상": 7832,
      "헤어용품": 7833,
      "맨투맨세트": 7834,
      "가방세트": 7835,
      "가방원피스": 7836,
      "레이첼": 7837,
      "10p": 7838,
      "조거pt": 7839,
      "자수세트": 7840,
      "치마반바지": 7841,
      "크롭자켓": 7842,
      "19x": 7843,
      "로이스": 7844,
      "캉캉치렝스": 7845,
      "데이지꽃": 7846,
      "언발란스": 7847,
      "이중지": 7848,
      "와이어벙거지": 7849,
      "포포베어": 7850,
      "핸들수": 7851,
      "마인드": 7852,
      "치노팬츠": 7853,
      "태진사": 7854,
      "바람난강아지": 7855,
      "꾸안꾸": 7856,
      "2호": 7857,
      "408": 7858,
      "BK": 7859,
      "EP": 7860,
      "hi": 7861,
      "가루": 7862,
      "공지": 7863,
      "나눔": 7864,
      "노블": 7865,
      "동그리": 7866,
      "드레": 7867,
      "로에": 7868,
      "몽키": 7869,
      "문종": 7870,
      "미안": 7871,
      "보부": 7872,
      "브론": 7873,
      "블렛": 7874,
      "블린": 7875,
      "뾰족": 7876,
      "옆리본핀": 7877,
      "오미": 7878,
      "탄탄": 7879,
      "파즈": 7880,
      "푸쉬": 7881,
      "푸바오": 7882,
      "훌라": 7883,
      "흰색": 7884,
      "리본양말세트": 7885,
      "하트팬츠": 7886,
      "하트컬러": 7887,
      "10_925실버": 7888,
      "자수팬츠": 7889,
      "1500원": 7890,
      "단가라니트": 7891,
      "기획특가": 7892,
      "러브맨투맨": 7893,
      "악세사리_팔찌_골드14": 7894,
      "볼캡모자": 7895,
      "175": 7896,
      "피그팬츠": 7897,
      "긴팔셔츠": 7898,
      "아노락세트": 7899,
      "식품_수산": 7900,
      "트렌디": 7901,
      "스윔팬츠": 7902,
      "올림머리집게핀": 7903,
      "시원한": 7904,
      "OR도금": 7905,
      "토드백": 7906,
      "기프트세트": 7907,
      "보부상": 7908,
      "225": 7909,
      "3cm": 7910,
      "Y9": 7911,
      "_B": 7912,
      "la": 7913,
      "구르": 7914,
      "나이트": 7915,
      "네크리스": 7916,
      "댕글": 7917,
      "로리": 7918,
      "로엘": 7919,
      "롱삭스": 7920,
      "맥세이프": 7921,
      "바웃": 7922,
      "브레이": 7923,
      "샤링": 7924,
      "설빔": 7925,
      "식스": 7926,
      "어바웃": 7927,
      "와우": 7928,
      "왕리본핀": 7929,
      "인삼": 7930,
      "일상": 7931,
      "지티": 7932,
      "축구": 7933,
      "쿠르": 7934,
      "팅커": 7935,
      "피노": 7936,
      "햅번": 7937,
      "반지갑": 7938,
      "베베코코": 7939,
      "조끼상하": 7940,
      "플라워세트": 7941,
      "카라T": 7942,
      "기모후드": 7943,
      "골지양말": 7944,
      "자수캡": 7945,
      "단가라팬츠": 7946,
      "011": 7947,
      "테리세트": 7948,
      "138": 7949,
      "라인티": 7950,
      "린넨티": 7951,
      "클로그": 7952,
      "세인트퀸": 7953,
      "스튜디오M": 7954,
      "의류_여성아우터_패딩": 7955,
      "의류_남성아우터_재킷": 7956,
      "쭈리팬츠": 7957,
      "에어팟케이스": 7958,
      "젤라또": 7959,
      "기장3": 7960,
      "백설공주": 7961,
      "소스볼": 7962,
      "비타민": 7963,
      "스페셜": 7964,
      "이브닝드레스": 7965,
      "이자벨": 7966,
      "식품_수산물_": 7967,
      "6color": 7968,
      "FR": 7969,
      "New": 7970,
      "WO": 7971,
      "gold": 7972,
      "way": 7973,
      "넝쿨": 7974,
      "대양": 7975,
      "모드": 7976,
      "배송": 7977,
      "샤워": 7978,
      "선풍기": 7979,
      "세면": 7980,
      "슈참": 7981,
      "엄빠": 7982,
      "이쁜": 7983,
      "청슈트": 7984,
      "쿨토시": 7985,
      "키드": 7986,
      "페페": 7987,
      "호호": 7988,
      "패션킹": 7989,
      "상하복세트": 7990,
      "하트핀": 7991,
      "큐빅하트": 7992,
      "데일리룩": 7993,
      "기모바지": 7994,
      "기모스판": 7995,
      "사각집게핀": 7996,
      "심플리": 7997,
      "포켓반바지": 7998,
      "131": 7999,
      "곰돌이맨투맨": 8000,
      "레이어드나시": 8001,
      "로즈원피스": 8002,
      "미키마우스": 8003,
      "삼각똑딱핀": 8004,
      "샤샤원피스": 8005,
      "샤샤스커트": 8006,
      "트임부츠컷": 8007,
      "헬로고냥이": 8008,
      "벌룬원피스": 8009,
      "페어리": 8010,
      "마시멜로": 8011,
      "재입고완료": 8012,
      "인디고": 8013,
      "편한머리띠": 8014,
      "깔끔한": 8015,
      "일러스트": 8016,
      "카치온": 8017,
      "브래드": 8018,
      "))": 8019,
      "020": 8020,
      "015": 8021,
      "1box": 8022,
      "212": 8023,
      "5000원": 8024,
      "7부자가드": 8025,
      "8개": 8026,
      "E9": 8027,
      "ULT": 8028,
      "Y7": 8029,
      "_03": 8030,
      "cel": 8031,
      "두림": 8032,
      "랩반바지": 8033,
      "모래": 8034,
      "뮤직": 8035,
      "미스트": 8036,
      "버켄": 8037,
      "보행기": 8038,
      "비안": 8039,
      "빨대": 8040,
      "사인": 8041,
      "서랍": 8042,
      "서프": 8043,
      "센틱": 8044,
      "슈프림": 8045,
      "신한": 8046,
      "썬글": 8047,
      "아라": 8048,
      "안됨": 8049,
      "엄지": 8050,
      "에이드": 8051,
      "젬포스": 8052,
      "중형": 8053,
      "체형": 8054,
      "초콜": 8055,
      "컨츠": 8056,
      "털집게핀": 8057,
      "프란": 8058,
      "한판": 8059,
      "회오리": 8060,
      "셔츠자켓": 8061,
      "반지판": 8062,
      "하트곰": 8063,
      "미니핀": 8064,
      "10set": 8065,
      "진주볼": 8066,
      "레이스조거팬츠": 8067,
      "기모상하세트": 8068,
      "골지상하": 8069,
      "프릴블루머": 8070,
      "반팔슈트": 8071,
      "15mm": 8072,
      "헤어핀set": 8073,
      "145": 8074,
      "사각사각": 8075,
      "스판레깅스": 8076,
      "주름원피스": 8077,
      "SE34": 8078,
      "세인트티": 8079,
      "가죽자켓": 8080,
      "누빔원피스": 8081,
      "29x": 8082,
      "튤립원피스": 8083,
      "스파클": 8084,
      "퍼피맨투맨": 8085,
      "날개원피스": 8086,
      "튜튜치렝스": 8087,
      "아쿠아슈즈": 8088,
      "한정수량": 8089,
      "스칼렛": 8090,
      "쓰리피스세트": 8091,
      "더블유아이": 8092,
      "은귀걸이_YE": 8093,
      "celet": 8094,
      "2set": 8095,
      "6색": 8096,
      "6컬러": 8097,
      "By": 8098,
      "개비": 8099,
      "글씨": 8100,
      "기기": 8101,
      "덩크": 8102,
      "린상사": 8103,
      "마리오": 8104,
      "말리": 8105,
      "매입": 8106,
      "서스": 8107,
      "세이": 8108,
      "센셜": 8109,
      "여신": 8110,
      "원투": 8111,
      "인크리스": 8112,
      "장당": 8113,
      "장바구니": 8114,
      "지르": 8115,
      "직장": 8116,
      "짜임": 8117,
      "첼시": 8118,
      "칼립": 8119,
      "쿠유": 8120,
      "쿠프": 8121,
      "타공": 8122,
      "태린상사": 8123,
      "토파즈": 8124,
      "튀김": 8125,
      "트팬츠": 8126,
      "풋레깅스": 8127,
      "하객": 8128,
      "모자포함": 8129,
      "미니가방": 8130,
      "미니파우치": 8131,
      "데일리빅": 8132,
      "플라워블라우스": 8133,
      "용기_세트": 8134,
      "베어티셔츠": 8135,
      "자수가디건": 8136,
      "단가라세트": 8137,
      "크롭셔츠": 8138,
      "도트리본": 8139,
      "미용_헤어용품": 8140,
      "유니온": 8141,
      "스트라이프티셔츠": 8142,
      "10개입": 8143,
      "스퀘어티": 8144,
      "타원접시": 8145,
      "하프넥": 8146,
      "샤샤슈트": 8147,
      "후리스조거팬츠": 8148,
      "고무줄반지": 8149,
      "퍼피티": 8150,
      "SPC45": 8151,
      "ea_00": 8152,
      "300ml": 8153,
      "모나코": 8154,
      "-(": 8155,
      "600": 8156,
      "7인치": 8157,
      "EC": 8158,
      "P03": 8159,
      "P04": 8160,
      "oo": 8161,
      "steel": 8162,
      "곰레깅스": 8163,
      "꽃블라우스": 8164,
      "냥냥": 8165,
      "노멀": 8166,
      "농장": 8167,
      "레쉬": 8168,
      "렐라": 8169,
      "롯지": 8170,
      "롱코트": 8171,
      "르뎅": 8172,
      "몰드": 8173,
      "백꾸": 8174,
      "북유럽": 8175,
      "센터": 8176,
      "숏츠": 8177,
      "스페이스": 8178,
      "어센틱": 8179,
      "에티": 8180,
      "왕진주": 8181,
      "유후": 8182,
      "이새": 8183,
      "이와이": 8184,
      "제비": 8185,
      "초아": 8186,
      "타늄": 8187,
      "파크": 8188,
      "패피": 8189,
      "퍼자켓": 8190,
      "포드": 8191,
      "24x": 8192,
      "실버체인팔찌": 8193,
      "리본조거팬츠": 8194,
      "하트크롭티": 8195,
      "레이지": 8196,
      "블루베리": 8197,
      "터치장갑": 8198,
      "스마일5종세트": 8199,
      "프릴맨투맨": 8200,
      "144": 8201,
      "146": 8202,
      "반려동물_장난감": 8203,
      "핑크리본": 8204,
      "보넷포함": 8205,
      "방울비니": 8206,
      "07_": 8207,
      "172": 8208,
      "유니섹": 8209,
      "스트라이프팬츠": 8210,
      "애플티": 8211,
      "프로방": 8212,
      "볼드체인": 8213,
      "주방용품_주방조리도구_수저": 8214,
      "후리스집업": 8215,
      "패치맨투맨": 8216,
      "미디스커트": 8217,
      "버디삭스": 8218,
      "매쉬캡": 8219,
      "말랑이": 8220,
      "둥근카라티": 8221,
      "아토실버": 8222,
      "마르틴": 8223,
      "보아털": 8224,
      "스투시": 8225,
      "2세트신꾸키링": 8226,
      "멜란지": 8227,
      "1행사": 8228,
      "2인": 8229,
      "3목": 8230,
      "AI": 8231,
      "BI": 8232,
      "BO": 8233,
      "BR": 8234,
      "DY": 8235,
      "cap": 8236,
      "ke": 8237,
      "논페이드": 8238,
      "니다": 8239,
      "대자": 8240,
      "돌돌": 8241,
      "머랭": 8242,
      "벌집": 8243,
      "별별": 8244,
      "블핑": 8245,
      "빙수": 8246,
      "선샤인": 8247,
      "손거울": 8248,
      "수수": 8249,
      "수지": 8250,
      "얼음": 8251,
      "엘프": 8252,
      "은색": 8253,
      "이스트": 8254,
      "일체형": 8255,
      "찍찍이": 8256,
      "청멜빵바지": 8257,
      "퀼트": 8258,
      "털실": 8259,
      "테조": 8260,
      "파운드": 8261,
      "풍성": 8262,
      "피케이": 8263,
      "25인치": 8264,
      "겨울집게핀": 8265,
      "베베샌들": 8266,
      "아이러브": 8267,
      "써지컬체인": 8268,
      "10매": 8269,
      "1003": 8270,
      "체크프릴": 8271,
      "키즈나": 8272,
      "스마일상하세트": 8273,
      "153": 8274,
      "141": 8275,
      "반려동물_위생": 8276,
      "화이트펄": 8277,
      "134": 8278,
      "와이드청바지": 8279,
      "레이어드맨투맨": 8280,
      "뷰티미용_부자재_": 8281,
      "나그랑슈트": 8282,
      "27cm": 8283,
      "절개맨투맨": 8284,
      "고무줄끈": 8285,
      "피카츄": 8286,
      "파츠세트": 8287,
      "피그먼트티": 8288,
      "트레이닝바지": 8289,
      "이너컨츠": 8290,
      "우주인": 8291,
      "10x10x": 8292,
      "페이크폴라": 8293,
      "골프가방악세사리": 8294,
      "티크우드": 8295,
      "순이키링": 8296,
      "보닛햇": 8297,
      "시어서커": 8298,
      "어몽어스": 8299,
      "분리형": 8300,
      "알렌테조": 8301,
      "배변용품_": 8302,
      "직장인": 8303,
      "유니섹스": 8304,
      "1행사안됨": 8305,
      "3색": 8306,
      "E6": 8307,
      "MB": 8308,
      "se": 8309,
      "거미": 8310,
      "곰가방": 8311,
      "관절": 8312,
      "금색": 8313,
      "꽃집게핀": 8314,
      "꽃진주": 8315,
      "나들이": 8316,
      "높이": 8317,
      "니스티": 8318,
      "발토시": 8319,
      "비오": 8320,
      "비지": 8321,
      "산호": 8322,
      "샤틴": 8323,
      "소원": 8324,
      "아름": 8325,
      "아치": 8326,
      "애착": 8327,
      "옆집게": 8328,
      "오성사": 8329,
      "월계": 8330,
      "청치마": 8331,
      "카리나": 8332,
      "케이트": 8333,
      "코이": 8334,
      "투버튼": 8335,
      "티타늄": 8336,
      "포카": 8337,
      "포토": 8338,
      "하게": 8339,
      "해골": 8340,
      "헬렌": 8341,
      "리본포인트": 8342,
      "하트토끼": 8343,
      "1022": 8344,
      "1017": 8345,
      "니트세트": 8346,
      "큐빅핀": 8347,
      "체크티": 8348,
      "체크무늬": 8349,
      "카라자켓": 8350,
      "베어벙거지": 8351,
      "반바지세트": 8352,
      "에이프릴": 8353,
      "22x": 8354,
      "러브하트": 8355,
      "도트티": 8356,
      "도트슈트": 8357,
      "배기청": 8358,
      "퍼프티셔츠": 8359,
      "오픈형": 8360,
      "개당1200": 8361,
      "볼드한": 8362,
      "21cm": 8363,
      "칼라풀": 8364,
      "해피니스": 8365,
      "ine": 8366,
      "케이스세트": 8367,
      "test": 8368,
      "의류_남성상의_셔츠": 8369,
      "스탠딩": 8370,
      "인형키링_": 8371,
      "퀼팅원피스": 8372,
      "레더자켓": 8373,
      "가락지": 8374,
      "디스펜": 8375,
      "오프숄더": 8376,
      "우주선": 8377,
      "part": 8378,
      "후프이어링": 8379,
      "아웃도어": 8380,
      "프린세스원피스": 8381,
      "aby": 8382,
      "리본머리핀2종": 8383,
      "서핑슈트": 8384,
      "다잉맨투맨": 8385,
      "디테일컷": 8386,
      "LD00": 8387,
      "비비안리": 8388,
      "데미지": 8389,
      "쵸코마루": 8390,
      "지우개": 8391,
      "1번": 8392,
      "1호": 8393,
      "MI": 8394,
      "Sale": 8395,
      "VC": 8396,
      "it": 8397,
      "un": 8398,
      "가면": 8399,
      "각진": 8400,
      "구성": 8401,
      "꼬냑": 8402,
      "날드": 8403,
      "대왕": 8404,
      "데이즈": 8405,
      "덴버": 8406,
      "도스": 8407,
      "따숨": 8408,
      "떼떼": 8409,
      "라원피스": 8410,
      "리봉": 8411,
      "린트": 8412,
      "만세": 8413,
      "모이": 8414,
      "문어": 8415,
      "버그": 8416,
      "부드": 8417,
      "비티": 8418,
      "새콤": 8419,
      "셀프": 8420,
      "쉐이크": 8421,
      "슈테": 8422,
      "스원피스": 8423,
      "시트린": 8424,
      "신성": 8425,
      "신신": 8426,
      "안전": 8427,
      "연청": 8428,
      "오드": 8429,
      "오띠": 8430,
      "오링": 8431,
      "유스": 8432,
      "젤네일": 8433,
      "진저": 8434,
      "퓨처": 8435,
      "화려": 8436,
      "후루": 8437,
      "후염": 8438,
      "아동복": 8439,
      "후드바람막이": 8440,
      "하트반지": 8441,
      "아이떼떼": 8442,
      "니트머플러목도리": 8443,
      "진주체인": 8444,
      "나시티셔츠": 8445,
      "데님PT": 8446,
      "레이스맨투맨": 8447,
      "카라상하복": 8448,
      "152": 8449,
      "143": 8450,
      "컬러볼": 8451,
      "컬러큐빅": 8452,
      "포켓부츠컷": 8453,
      "곰돌이티": 8454,
      "와이드데님청바지": 8455,
      "SE10": 8456,
      "카고스커트": 8457,
      "169": 8458,
      "썸머티": 8459,
      "썸머팬츠": 8460,
      "미미모": 8461,
      "170": 8462,
      "유니폼": 8463,
      "쥬얼리케이스": 8464,
      "나그랑티셔츠": 8465,
      "트리버": 8466,
      "해피티": 8467,
      "성인용": 8468,
      "의류_남성상의_니트": 8469,
      "유리컵": 8470,
      "아이스큐빅": 8471,
      "2pcs": 8472,
      "고래꼬리": 8473,
      "수저받침": 8474,
      "15x2": 8475,
      "전사나염": 8476,
      "트랙팬츠": 8477,
      "플로리다": 8478,
      "파라다이": 8479,
      "양쪽집게핀": 8480,
      "팅커벨": 8481,
      "1kg": 8482,
      "223": 8483,
      "6미리": 8484,
      "EQ": 8485,
      "GS": 8486,
      "그라운드": 8487,
      "글램": 8488,
      "꽃실내복": 8489,
      "낚시": 8490,
      "달랑이": 8491,
      "대디": 8492,
      "라코": 8493,
      "레가시": 8494,
      "롱티셔츠": 8495,
      "리리": 8496,
      "마리아": 8497,
      "미티": 8498,
      "믹싱": 8499,
      "보글": 8500,
      "분홍": 8501,
      "브릿": 8502,
      "빗핀": 8503,
      "손톱": 8504,
      "숏패딩": 8505,
      "스폰": 8506,
      "신디": 8507,
      "실화": 8508,
      "오목": 8509,
      "옷핀": 8510,
      "우정": 8511,
      "은부자재": 8512,
      "잔망": 8513,
      "장목": 8514,
      "주주": 8515,
      "탑나래": 8516,
      "파격": 8517,
      "상하셋트": 8518,
      "플라워팬츠": 8519,
      "기모부츠컷": 8520,
      "골지티셔츠": 8521,
      "202": 8522,
      "2024봄": 8523,
      "프릴티셔츠": 8524,
      "프릴카라": 8525,
      "배색나그랑티": 8526,
      "바이모던": 8527,
      "포켓데님팬츠": 8528,
      "베이직티": 8529,
      "스카프빕": 8530,
      "레브키즈": 8531,
      "28cm": 8532,
      "5종덧신세트": 8533,
      "cut": 8534,
      "후리스조끼": 8535,
      "단추티": 8536,
      "스모킹": 8537,
      "덧신5족세트": 8538,
      "생활한복": 8539,
      "스몰비": 8540,
      "pant": 8541,
      "별도공지": 8542,
      "몽글몽글": 8543,
      "샤프란": 8544,
      "더본마인": 8545,
      "크린아로마": 8546,
      "뷰티미용_부자재_펜던트": 8547,
      "슈테른": 8548,
      "pants": 8549,
      "B_": 8550,
      "GT": 8551,
      "ON": 8552,
      "PB": 8553,
      "ot": 8554,
      "가오리": 8555,
      "꽃나염": 8556,
      "둥카": 8557,
      "러시": 8558,
      "롤러": 8559,
      "롱맨투맨": 8560,
      "르네": 8561,
      "말티": 8562,
      "맥주": 8563,
      "머쉬": 8564,
      "미올리": 8565,
      "부분": 8566,
      "비트": 8567,
      "비접착": 8568,
      "서울": 8569,
      "솔방울": 8570,
      "야자": 8571,
      "양스판": 8572,
      "줄난": 8573,
      "청조끼": 8574,
      "해이": 8575,
      "히슈테른": 8576,
      "세트추가": 8577,
      "후드가디건": 8578,
      "후드워머": 8579,
      "미니밀리": 8580,
      "데님스판": 8581,
      "203": 8582,
      "208": 8583,
      "소매티": 8584,
      "013": 8585,
      "포켓데님": 8586,
      "버니티": 8587,
      "185": 8588,
      "크롭니트": 8589,
      "무지볼캡": 8590,
      "코코가방": 8591,
      "라인조거팬츠": 8592,
      "엘리자": 8593,
      "린넨나시": 8594,
      "리틀아이": 8595,
      "스트라이프맨투맨": 8596,
      "5x6": 8597,
      "5x10": 8598,
      "더블하트": 8599,
      "캐릭터키링": 8600,
      "SSS": 8601,
      "밀리터리": 8602,
      "악세사리_발찌_기타": 8603,
      "2_바로와": 8604,
      "ean": 8605,
      "소녀티": 8606,
      "래쉬가드세트": 8607,
      "노트북": 8608,
      "돼지코": 8609,
      "스팽클반전": 8610,
      "하와이안": 8611,
      "또또아": 8612,
      "250원": 8613,
      "캐시미어": 8614,
      "보르미올리": 8615,
      "바둑이": 8616,
      "소주잔": 8617,
      "챔피온": 8618,
      "글래스": 8619,
      "에비히슈테른": 8620,
      "1구": 8621,
      "5실버": 8622,
      "UC": 8623,
      "ir": 8624,
      "na": 8625,
      "vc": 8626,
      "길이": 8627,
      "덕다운": 8628,
      "도치": 8629,
      "디바": 8630,
      "레글런": 8631,
      "롱나시": 8632,
      "루카": 8633,
      "리브": 8634,
      "리트리버": 8635,
      "배드": 8636,
      "변형": 8637,
      "보네": 8638,
      "보떼": 8639,
      "부끄": 8640,
      "승달": 8641,
      "앞머리": 8642,
      "에센셜": 8643,
      "연화": 8644,
      "오븐": 8645,
      "은박": 8646,
      "자카드": 8647,
      "주걱": 8648,
      "진청": 8649,
      "초승달": 8650,
      "커튼": 8651,
      "케잌": 8652,
      "코넬": 8653,
      "콩세트": 8654,
      "쿠로": 8655,
      "판당": 8656,
      "퓨코": 8657,
      "해브": 8658,
      "호보": 8659,
      "흔들": 8660,
      "23x": 8661,
      "베베슈트": 8662,
      "리본양말": 8663,
      "미니크로스백": 8664,
      "점퍼스커트": 8665,
      "팔찌목걸이": 8666,
      "진주알": 8667,
      "008": 8668,
      "레이스티셔츠": 8669,
      "용기_유아": 8670,
      "스마일비니": 8671,
      "토끼털": 8672,
      "204": 8673,
      "206": 8674,
      "016": 8675,
      "026": 8676,
      "패딩귀달이": 8677,
      "부츠컷세트": 8678,
      "수영복_": 8679,
      "프리지아": 8680,
      "공룡실내복": 8681,
      "레모네이드겨울": 8682,
      "칼라당": 8683,
      "해피데이": 8684,
      "꼬리핀": 8685,
      "뱅글팔찌": 8686,
      "파인드": 8687,
      "양털조끼": 8688,
      "랍빠반바지": 8689,
      "SPC10": 8690,
      "자동차티": 8691,
      "프리사이즈반지": 8692,
      "식탁매트": 8693,
      "색상랜덤": 8694,
      "반장3족세트": 8695,
      "인디핑크": 8696,
      "페리도트": 8697,
      "멍뭉이": 8698,
      "아메리카": 8699,
      "꽃_생화_프리저브드": 8700,
      "어드벤처": 8701,
      "웨하스": 8702,
      "비안코": 8703,
      "디스펜서": 8704,
      "6ea": 8705,
      "Be": 8706,
      "FEM": 8707,
      "Hat": 8708,
      "P01": 8709,
      "_04": 8710,
      "_전통": 8711,
      "baby": 8712,
      "lo": 8713,
      "곰이": 8714,
      "깅엄": 8715,
      "냐옹": 8716,
      "노말": 8717,
      "대박": 8718,
      "뚜기": 8719,
      "렌토": 8720,
      "매장": 8721,
      "면티셔츠": 8722,
      "모다": 8723,
      "물감": 8724,
      "미드": 8725,
      "밀폐": 8726,
      "박시티": 8727,
      "볼볼": 8728,
      "블로": 8729,
      "비기": 8730,
      "빅하트": 8731,
      "생선": 8732,
      "소재": 8733,
      "스런": 8734,
      "시까지": 8735,
      "우아": 8736,
      "털플랫": 8737,
      "홈세트": 8738,
      "화살": 8739,
      "기타_전통": 8740,
      "하트세트": 8741,
      "의류_한복_": 8742,
      "체크상하": 8743,
      "스마일양말": 8744,
      "골지상하세트": 8745,
      "리스카프": 8746,
      "블랙앤": 8747,
      "컬러추가": 8748,
      "한복세트": 8749,
      "한복머리띠": 8750,
      "스크랩": 8751,
      "포켓원피스": 8752,
      "코코베이지": 8753,
      "봉봉멜빵": 8754,
      "주니어덜트": 8755,
      "방울머플러": 8756,
      "165": 8757,
      "유니버": 8758,
      "캔디팝": 8759,
      "로라도": 8760,
      "커즈5족세트": 8761,
      "장미꽃": 8762,
      "아오유": 8763,
      "삼각핀": 8764,
      "식품_기타_전통": 8765,
      "tee": 8766,
      "워싱턴": 8767,
      "유니크한": 8768,
      "뉴욕맨투맨": 8769,
      "드림케": 8770,
      "이너나시": 8771,
      "SPC4": 8772,
      "시보리팬츠": 8773,
      "스노우볼": 8774,
      "크레파스": 8775,
      "30x25x": 8776,
      "공예부자재_원단": 8777,
      "팔각모": 8778,
      "고퀄리티": 8779,
      "짱짱한": 8780,
      "세면밴드": 8781,
      "의류_한복_기타": 8782,
      "식품_기타_전통주": 8783,
      ")/": 8784,
      "1mm": 8785,
      "350": 8786,
      "6인치": 8787,
      "9인치": 8788,
      "VI": 8789,
      "mini": 8790,
      "그라스": 8791,
      "까망": 8792,
      "깎이": 8793,
      "덴깡": 8794,
      "디지": 8795,
      "래처": 8796,
      "레지": 8797,
      "르봄": 8798,
      "말이": 8799,
      "말리아": 8800,
      "베개": 8801,
      "변신": 8802,
      "불투명": 8803,
      "샌딩": 8804,
      "성물": 8805,
      "슬로": 8806,
      "앤디": 8807,
      "에말리아": 8808,
      "영롱": 8809,
      "영양": 8810,
      "올웨이즈": 8811,
      "울베레모": 8812,
      "위니": 8813,
      "이는": 8814,
      "이레": 8815,
      "조깅": 8816,
      "진공": 8817,
      "초경량": 8818,
      "츄잉": 8819,
      "컬렉션": 8820,
      "콜린": 8821,
      "콜로라도": 8822,
      "테라": 8823,
      "펜0": 8824,
      "피셔": 8825,
      "필라": 8826,
      "헤비": 8827,
      "피스귀걸이": 8828,
      "10쌍": 8829,
      "데일리백": 8830,
      "데일리티": 8831,
      "레이스니삭스": 8832,
      "원터치이어링E": 8833,
      "조거세트": 8834,
      "프릴상하": 8835,
      "155": 8836,
      "149": 8837,
      "배색상하": 8838,
      "22cm": 8839,
      "브로치A": 8840,
      "강아지티": 8841,
      "클로버귀걸이": 8842,
      "고양이티": 8843,
      "체리원피스": 8844,
      "5x5": 8845,
      "망사스커트": 8846,
      "의류_남성상의_후드": 8847,
      "뉴욕티": 8848,
      "트레이닝복": 8849,
      "스모크슈트": 8850,
      "스모크블라우스": 8851,
      "나이스데이": 8852,
      "4개세트": 8853,
      "히트텍스": 8854,
      "봉제인형키링": 8855,
      "less": 8856,
      "BT311": 8857,
      "브룩클린": 8858,
      "바이커팬츠": 8859,
      "자외선차단": 8860,
      "공방브로치A": 8861,
      "따뜻한": 8862,
      "서스펜더": 8863,
      "부드러운": 8864,
      "A06": 8865,
      "TO": 8866,
      "ain": 8867,
      "cc": 8868,
      "mi": 8869,
      "pvc": 8870,
      "갑종": 8871,
      "경찰": 8872,
      "글로우": 8873,
      "꼬망": 8874,
      "도니": 8875,
      "떼루아": 8876,
      "라빠": 8877,
      "릴렉스": 8878,
      "목마": 8879,
      "벌레": 8880,
      "벨크로": 8881,
      "뽀그리": 8882,
      "사방": 8883,
      "삼단": 8884,
      "아도": 8885,
      "어흥": 8886,
      "쥬니": 8887,
      "채반": 8888,
      "채플린": 8889,
      "청PT": 8890,
      "토브": 8891,
      "파랑": 8892,
      "하코": 8893,
      "해외": 8894,
      "향기": 8895,
      "회색": 8896,
      "24HJ": 8897,
      "바지세트": 8898,
      "리본타이": 8899,
      "하트상하": 8900,
      "데님청자켓": 8901,
      "머리끈세트": 8902,
      "카라집업": 8903,
      "2021": 8904,
      "하이웨스트": 8905,
      "159": 8906,
      "147": 8907,
      "148": 8908,
      "스크롭": 8909,
      "12p": 8910,
      "멜빵레깅스": 8911,
      "멜빵치마": 8912,
      "골드볼": 8913,
      "도트팬츠": 8914,
      "벨벳원피스": 8915,
      "애플애플": 8916,
      "엘리몰리여름": 8917,
      "우디모델": 8918,
      "미키와친구들": 8919,
      "5x8": 8920,
      "리본핀세트": 8921,
      "주방용품_주방조리도구_커피": 8922,
      "나무세트": 8923,
      "Bracelet": 8924,
      "패치티": 8925,
      "반짝반짝": 8926,
      "아일렛레깅스": 8927,
      "컷팅청": 8928,
      "앤틱실버": 8929,
      "본딩원피스": 8930,
      "잔꽃원피스": 8931,
      "인기캐릭터": 8932,
      "시즌상품": 8933,
      "후라이스스판": 8934,
      "25x20x": 8935,
      "인디언": 8936,
      "단작슈트": 8937,
      "4202": 8938,
      "슬럽티": 8939,
      "스카이블루": 8940,
      "빵빵이": 8941,
      "발목양말": 8942,
      "메모지": 8943,
      "보조가방": 8944,
      "브론즈": 8945,
      "말리부": 8946,
      "주방용품_주방조리도구_커피용품": 8947,
      "023": 8948,
      "010": 8949,
      "3번": 8950,
      "6종세트": 8951,
      "9부팬츠": 8952,
      "CH": 8953,
      "D고리": 8954,
      "Day": 8955,
      "EB": 8956,
      "LVER": 8957,
      "PVC": 8958,
      "nic": 8959,
      "ue": 8960,
      "가리": 8961,
      "거래처": 8962,
      "고깔": 8963,
      "깜뽀": 8964,
      "꽃길": 8965,
      "니키": 8966,
      "더퀸": 8967,
      "똑핀": 8968,
      "면스판바지": 8969,
      "무소음": 8970,
      "별티": 8971,
      "봄빛": 8972,
      "빈키즈": 8973,
      "사다리": 8974,
      "서퍼": 8975,
      "소시": 8976,
      "스쿠": 8977,
      "실삔": 8978,
      "씨링": 8979,
      "오각": 8980,
      "움직": 8981,
      "유넥": 8982,
      "저스": 8983,
      "철사": 8984,
      "첵스": 8985,
      "칼세": 8986,
      "키오": 8987,
      "타운": 8988,
      "포유": 8989,
      "피피": 8990,
      "할머니": 8991,
      "헤라": 8992,
      "현관": 8993,
      "사리본": 8994,
      "240": 8995,
      "24cm": 8996,
      "가을겨울": 8997,
      "세트티": 8998,
      "귀걸이_세트_": 8999,
      "아이템": 9000,
      "1014": 9001,
      "1008": 9002,
      "진주머리띠": 9003,
      "제이드": 9004,
      "레이스케이프": 9005,
      "기모데님": 9006,
      "골지슈트": 9007,
      "골지조거팬츠": 9008,
      "154": 9009,
      "157": 9010,
      "반바지상하세트": 9011,
      "사각접시": 9012,
      "크롭가디건": 9013,
      "139": 9014,
      "곰돌이상하": 9015,
      "나비에": 9016,
      "주름치랭스": 9017,
      "도트세트": 9018,
      "SE43": 9019,
      "배기청바지": 9020,
      "171": 9021,
      "뽀글뽀글": 9022,
      "50x": 9023,
      "벨루아": 9024,
      "받침대": 9025,
      "26x": 9026,
      "네일스티커": 9027,
      "자개공예": 9028,
      "바오네이처": 9029,
      "벌룬팬츠": 9030,
      "호박팬츠": 9031,
      "라이프_공예품_자개공예": 9032,
      "덤블점퍼": 9033,
      "ETC07": 9034,
      "02_성우패션": 9035,
      "5족1세트": 9036,
      "텍스쳐": 9037,
      "아델라": 9038,
      "POLO": 9039,
      "SILVER": 9040,
      "파격할인": 9041,
      "별도공지시까지": 9042,
      "짱짱한머리끈": 9043,
      "TB": 9044,
      "TER": 9045,
      "검은": 9046,
      "격자": 9047,
      "계량": 9048,
      "꽃팬츠": 9049,
      "꽃집게": 9050,
      "도날드": 9051,
      "라메": 9052,
      "라온": 9053,
      "레쉬가드": 9054,
      "롱팬츠": 9055,
      "루디": 9056,
      "마블링": 9057,
      "명화": 9058,
      "모시": 9059,
      "바우": 9060,
      "반쪽": 9061,
      "베지": 9062,
      "보브": 9063,
      "봉재": 9064,
      "뷰탬": 9065,
      "빅스타": 9066,
      "빛나": 9067,
      "뽕스키즈": 9068,
      "수반": 9069,
      "스상하": 9070,
      "스상하세트": 9071,
      "시드": 9072,
      "신데": 9073,
      "썬글라스": 9074,
      "여러": 9075,
      "연꽃": 9076,
      "정원": 9077,
      "쥬니어": 9078,
      "충전": 9079,
      "쿠도스": 9080,
      "투핀": 9081,
      "판초": 9082,
      "페니": 9083,
      "하버드": 9084,
      "홍삼": 9085,
      "리본볼캡": 9086,
      "10수": 9087,
      "1007": 9088,
      "데일리레깅스": 9089,
      "데님추가": 9090,
      "데님치마바지": 9091,
      "스마일반팔티": 9092,
      "골지양말세트": 9093,
      "동물친구": 9094,
      "토끼슈트": 9095,
      "스타드": 9096,
      "컬러링": 9097,
      "라라비": 9098,
      "18피스귀걸이": 9099,
      "무지폴라티": 9100,
      "들리에": 9101,
      "라운드니트": 9102,
      "166": 9103,
      "199": 9104,
      "비즈스트랩": 9105,
      "STE10": 9106,
      "스트라이프셔츠": 9107,
      "자동우산": 9108,
      "캔디티": 9109,
      "레인보우티": 9110,
      "미키볼캡": 9111,
      "더블월": 9112,
      "원형접시": 9113,
      "의류_남성상의_민소매": 9114,
      "절개데님팬츠": 9115,
      "35cm": 9116,
      "공주님": 9117,
      "민소매티": 9118,
      "워머레깅스": 9119,
      "날개블라우스": 9120,
      "2_대영": 9121,
      "끈나시원피스": 9122,
      "인기상품": 9123,
      "4p세트": 9124,
      "달달한": 9125,
      "라그랑티": 9126,
      "핸펀줄": 9127,
      "터틀넥": 9128,
      "은하수": 9129,
      "미라클": 9130,
      "쿠르나르": 9131,
      "원투쓰리": 9132,
      "반려동물_장난감_": 9133,
      "화려한": 9134,
      "머쉬룸": 9135,
      "영양제": 9136,
      "뷰탬스": 9137,
      "3_": 9138,
      "6세트": 9139,
      "800원": 9140,
      "AL": 9141,
      "JS": 9142,
      "MNT": 9143,
      "P05": 9144,
      "TH": 9145,
      "TP": 9146,
      "jsp": 9147,
      "개굴": 9148,
      "거실화": 9149,
      "계단": 9150,
      "너프": 9151,
      "네버": 9152,
      "단풍": 9153,
      "대성물": 9154,
      "두두": 9155,
      "로디": 9156,
      "로운": 9157,
      "리그": 9158,
      "마고": 9159,
      "물나염티": 9160,
      "미듐": 9161,
      "반폴": 9162,
      "버리": 9163,
      "베키": 9164,
      "브랜드": 9165,
      "브레이커": 9166,
      "비틀": 9167,
      "시럽": 9168,
      "아바": 9169,
      "아빠": 9170,
      "아영": 9171,
      "양양": 9172,
      "에고": 9173,
      "에로": 9174,
      "오크": 9175,
      "온스": 9176,
      "유카리": 9177,
      "잼잼": 9178,
      "저지": 9179,
      "젖가락": 9180,
      "주말": 9181,
      "주석": 9182,
      "청pt": 9183,
      "칵테일": 9184,
      "코르": 9185,
      "코린트": 9186,
      "키높이": 9187,
      "토미": 9188,
      "티코스터": 9189,
      "할리": 9190,
      "해머": 9191,
      "원피스엄마": 9192,
      "리본반지": 9193,
      "리본반바지": 9194,
      "베이킹": 9195,
      "라이즈": 9196,
      "하트털": 9197,
      "하트펜던트": 9198,
      "1013": 9199,
      "체인반지": 9200,
      "큐빅리본": 9201,
      "레이스뷔스티에": 9202,
      "골지니트": 9203,
      "골지삭스": 9204,
      "단가라반팔티": 9205,
      "019": 9206,
      "화이트보드": 9207,
      "곰돌이자수": 9208,
      "와이드카고팬츠": 9209,
      "러브모어": 9210,
      "04_": 9211,
      "레이어드스커트": 9212,
      "161": 9213,
      "162": 9214,
      "164": 9215,
      "골덴스커트": 9216,
      "176": 9217,
      "발레티": 9218,
      "발레슈트": 9219,
      "클립체인": 9220,
      "버터맨투맨": 9221,
      "미키미니": 9222,
      "5x11": 9223,
      "스퀘어넥": 9224,
      "7부티": 9225,
      "도리구찌": 9226,
      "의류_남성상의_우산": 9227,
      "딸기원피스": 9228,
      "튤립티": 9229,
      "공주레깅스": 9230,
      "슬림링": 9231,
      "아일랜드": 9232,
      "워터키링": 9233,
      "바니맨투맨": 9234,
      "보드리": 9235,
      "바스락팬츠": 9236,
      "룸퍼보넷": 9237,
      "아동복_주니어_투피스": 9238,
      "GH28": 9239,
      "3p세트": 9240,
      "럭비티": 9241,
      "멜멜주니어": 9242,
      "사각팬티3P세트": 9243,
      "단작티": 9244,
      "항공점퍼": 9245,
      "라글란티": 9246,
      "풀루풀루": 9247,
      "스트레이트": 9248,
      "sm2": 9249,
      "푸쉬팝": 9250,
      "프로방스": 9251,
      "엘리자베스": 9252,
      "블로썸": 9253,
      "원투쓰리포": 9254,
      "대성물산": 9255,
      "2way": 9256,
      "4색": 9257,
      "5L": 9258,
      "BF": 9259,
      "TD": 9260,
      "UP": 9261,
      "걸스": 9262,
      "녹차": 9263,
      "댕기": 9264,
      "도우": 9265,
      "렌즈": 9266,
      "로사": 9267,
      "리더": 9268,
      "마녀": 9269,
      "머슬": 9270,
      "먼데이": 9271,
      "메뚜기": 9272,
      "멜팅": 9273,
      "미송": 9274,
      "바트리": 9275,
      "베니스": 9276,
      "볼귀걸이": 9277,
      "빅카라원피스": 9278,
      "빵모자": 9279,
      "사티아": 9280,
      "새라": 9281,
      "샹들리에": 9282,
      "세리": 9283,
      "세팅": 9284,
      "소룡": 9285,
      "신형": 9286,
      "쏘렌토": 9287,
      "애기": 9288,
      "에프": 9289,
      "엠와이": 9290,
      "오잉": 9291,
      "이상": 9292,
      "잔잔": 9293,
      "재진행": 9294,
      "주니": 9295,
      "차바트리": 9296,
      "청제깅스": 9297,
      "츄파": 9298,
      "크크": 9299,
      "타미": 9300,
      "택1": 9301,
      "토랑": 9302,
      "트래": 9303,
      "특별": 9304,
      "푸린": 9305,
      "프론": 9306,
      "피츠": 9307,
      "한줄": 9308,
      "합성": 9309,
      "리본상하": 9310,
      "하트프릴": 9311,
      "10ea": 9312,
      "데일리조거팬츠": 9313,
      "플라워맨투맨": 9314,
      "플라워스커트": 9315,
      "데님슈트": 9316,
      "레이스조끼": 9317,
      "레이스리본머리핀": 9318,
      "하이버디": 9319,
      "018": 9320,
      "테리맨투맨": 9321,
      "도트백": 9322,
      "꼬임집게": 9323,
      "퍼프가디건": 9324,
      "자동삔": 9325,
      "클립핀": 9326,
      "5x13": 9327,
      "5x7x": 9328,
      "데이지원피스": 9329,
      "고무신": 9330,
      "코스모스": 9331,
      "295": 9332,
      "트임원피스": 9333,
      "캔버스백": 9334,
      "라벨비니": 9335,
      "양털자켓": 9336,
      "양털무스탕": 9337,
      "웨이브티": 9338,
      "아일렛가디건": 9339,
      "산타모자": 9340,
      "수면바지": 9341,
      "one": 9342,
      "아미랑": 9343,
      "구제청바지": 9344,
      "드래곤SJ": 9345,
      "이동장": 9346,
      "6x6x": 9347,
      "롤업팬츠": 9348,
      "ETC05": 9349,
      "스웻셔츠": 9350,
      "중목양말": 9351,
      "보냉백": 9352,
      "수산가공품": 9353,
      "루프백": 9354,
      "러빙유": 9355,
      "써지컬목걸이B": 9356,
      "미아방지": 9357,
      "STN20": 9358,
      "ADULT": 9359,
      "남매룩": 9360,
      "바이올렛": 9361,
      "식품_수산물_수산가공품": 9362,
      "하객룩": 9363,
      "월계수": 9364,
      "꼬망세": 9365,
      "움직이는": 9366,
      "3부팬츠": 9367,
      "6set": 9368,
      "9종": 9369,
      "K1": 9370,
      "_05": 9371,
      "jk": 9372,
      "ul": 9373,
      "게이지": 9374,
      "교차": 9375,
      "구이": 9376,
      "그네": 9377,
      "끈슈트": 9378,
      "도비": 9379,
      "러닝": 9380,
      "립톡": 9381,
      "만들": 9382,
      "보헤": 9383,
      "뽀또": 9384,
      "새싹": 9385,
      "에잇": 9386,
      "엑센트": 9387,
      "여인": 9388,
      "옵션": 9389,
      "요크": 9390,
      "위티": 9391,
      "이젤": 9392,
      "이소룡": 9393,
      "일렛": 9394,
      "잔체크": 9395,
      "져지": 9396,
      "조던": 9397,
      "지는": 9398,
      "청스판": 9399,
      "캐스트": 9400,
      "컴포트": 9401,
      "코믹": 9402,
      "콤보": 9403,
      "클스": 9404,
      "탄력": 9405,
      "털슬리퍼": 9406,
      "파마": 9407,
      "파피": 9408,
      "팔토시": 9409,
      "팔레트": 9410,
      "햇님": 9411,
      "헤븐": 9412,
      "후리": 9413,
      "2302": 9414,
      "바지상하세트": 9415,
      "가방쟁이": 9416,
      "리본골지": 9417,
      "하트바지": 9418,
      "미니미니": 9419,
      "수트세트": 9420,
      "1018": 9421,
      "큐빅링": 9422,
      "체크가디건": 9423,
      "기모후드티": 9424,
      "골지날라리티": 9425,
      "인형키홀더": 9426,
      "곱창세트": 9427,
      "자수가방": 9428,
      "207": 9429,
      "프릴가디건": 9430,
      "블랙리본": 9431,
      "반팔원피스": 9432,
      "하이키즈": 9433,
      "핑크세트": 9434,
      "재료_": 9435,
      "183": 9436,
      "레이어드티셔츠": 9437,
      "반려동물_패션_레인코트": 9438,
      "방울링": 9439,
      "방울방울": 9440,
      "골덴캡": 9441,
      "골덴볼캡": 9442,
      "아크릴키링": 9443,
      "192": 9444,
      "LE00": 9445,
      "포장재료_": 9446,
      "개당7": 9447,
      "뷰티미용_포장재료_": 9448,
      "레모네이드여름": 9449,
      "앙뜨레": 9450,
      "누빔패딩": 9451,
      "남아드로즈팬티": 9452,
      "st티": 9453,
      "stain": 9454,
      "양면조끼": 9455,
      "세일러원피스": 9456,
      "엔젤티": 9457,
      "에어컨": 9458,
      "무니켈도금": 9459,
      "귀달이모자": 9460,
      "라탄백": 9461,
      "시보리바지": 9462,
      "수저통": 9463,
      "아쿠아마린": 9464,
      "랍바팬츠": 9465,
      "간식_": 9466,
      "모나미": 9467,
      "동백꽃": 9468,
      "24FW신상": 9469,
      "스칼럽": 9470,
      "타조털": 9471,
      "아름다운": 9472,
      "브릿지": 9473,
      "손톱깎이": 9474,
      "스폰지": 9475,
      "stainless": 9476,
      "024": 9477,
      "1조": 9478,
      "2s": 9479,
      "215": 9480,
      "3장": 9481,
      "7컬러": 9482,
      "900": 9483,
      "AN": 9484,
      "HW": 9485,
      "IN": 9486,
      "Kor": 9487,
      "MJ": 9488,
      "More": 9489,
      "P00": 9490,
      "SP": 9491,
      "ri": 9492,
      "sw": 9493,
      "강은": 9494,
      "게인": 9495,
      "고운": 9496,
      "곡선": 9497,
      "곰후드": 9498,
      "교복": 9499,
      "굵은": 9500,
      "꽃가디건": 9501,
      "꽃가라": 9502,
      "뉴하모니": 9503,
      "니드": 9504,
      "니엘": 9505,
      "단목": 9506,
      "라티": 9507,
      "레일": 9508,
      "롱스트랩": 9509,
      "맨하": 9510,
      "메가": 9511,
      "메론": 9512,
      "명함": 9513,
      "박쥐": 9514,
      "발톱": 9515,
      "벽장식": 9516,
      "보타이": 9517,
      "봄꽃": 9518,
      "브롯지": 9519,
      "빅플라워": 9520,
      "샴페인": 9521,
      "쇼팽": 9522,
      "숀더": 9523,
      "스핑클": 9524,
      "아요": 9525,
      "아리아": 9526,
      "알레": 9527,
      "암막": 9528,
      "앤젤": 9529,
      "야게": 9530,
      "에너": 9531,
      "에서": 9532,
      "에블린": 9533,
      "옆트임": 9534,
      "원픽": 9535,
      "유나": 9536,
      "일레": 9537,
      "일반": 9538,
      "조기": 9539,
      "코제": 9540,
      "크랩": 9541,
      "키라": 9542,
      "타투": 9543,
      "태양": 9544,
      "테레": 9545,
      "토퍼": 9546,
      "판타": 9547,
      "포멀": 9548,
      "폴링": 9549,
      "하로": 9550,
      "헤더": 9551,
      "헤이즈": 9552,
      "📷)": 9553,
      "실버큐빅": 9554,
      "250ml": 9555,
      "베베곰돌이": 9556,
      "리본슈슈": 9557,
      "리본스마트톡": 9558,
      "리본치마바지": 9559,
      "리본크롭티": 9560,
      "라이브": 9561,
      "하트베스트": 9562,
      "스트로우": 9563,
      "1009": 9564,
      "나시상하세트": 9565,
      "체크치랭스": 9566,
      "머리끈2종": 9567,
      "반팔남방": 9568,
      "배색후드티": 9569,
      "포켓맨투맨": 9570,
      "182": 9571,
      "멜빵반바지": 9572,
      "봉봉팬츠": 9573,
      "도트블라우스": 9574,
      "썸머원피스": 9575,
      "19cm": 9576,
      "07_925실버": 9577,
      "꼬임링": 9578,
      "애플식스": 9579,
      "캉캉팬츠": 9580,
      "캉캉치랭스": 9581,
      "위드라임": 9582,
      "오리엔": 9583,
      "고무인형": 9584,
      "핀턱슈트": 9585,
      "스티치티": 9586,
      "세일러티": 9587,
      "엔젤원피스": 9588,
      "마마스파파의류": 9589,
      "테잎팬츠": 9590,
      "바비인형키링": 9591,
      "산책용품_이동장": 9592,
      "아가일조끼": 9593,
      "earring": 9594,
      "보온내의": 9595,
      "아카시아": 9596,
      "방짜유기": 9597,
      "에니띵": 9598,
      "오미야게": 9599,
      "부분가발": 9600,
      "02_성우패션_": 9601,
      "신데렐라": 9602,
      "1m": 9603,
      "5번": 9604,
      "6P": 9605,
      "8미리": 9606,
      "Ball": 9607,
      "CR": 9608,
      "E01": 9609,
      "St": 9610,
      "WE": 9611,
      "yke": 9612,
      "고블렛": 9613,
      "구미": 9614,
      "냥냥이": 9615,
      "노란": 9616,
      "닥터": 9617,
      "대롱": 9618,
      "더그레이스": 9619,
      "도령": 9620,
      "돌가루": 9621,
      "등산": 9622,
      "라니": 9623,
      "루트": 9624,
      "루지아": 9625,
      "면비니": 9626,
      "면스판팬츠": 9627,
      "박이": 9628,
      "반양말": 9629,
      "별달": 9630,
      "북극": 9631,
      "비조": 9632,
      "샌프란": 9633,
      "샴푸": 9634,
      "세이지": 9635,
      "솜솜": 9636,
      "수원": 9637,
      "쌀알": 9638,
      "썰매": 9639,
      "썸띵": 9640,
      "쓰는": 9641,
      "아사": 9642,
      "액체": 9643,
      "유칼립": 9644,
      "이디": 9645,
      "자사": 9646,
      "자스민": 9647,
      "작약": 9648,
      "점토": 9649,
      "챙모": 9650,
      "처럼": 9651,
      "치아": 9652,
      "태그": 9653,
      "토이스": 9654,
      "티컵": 9655,
      "퍼타이트": 9656,
      "포테이": 9657,
      "핑퐁": 9658,
      "해초": 9659,
      "호프": 9660,
      "후레아": 9661,
      "모자형": 9662,
      "후드추가": 9663,
      "1001": 9664,
      "블라인드": 9665,
      "슈트셋업": 9666,
      "레이스반바지": 9667,
      "스마일조거팬츠": 9668,
      "2020": 9669,
      "프릴니삭스": 9670,
      "리스판": 9671,
      "심플모던": 9672,
      "187": 9673,
      "229": 9674,
      "집업상하": 9675,
      "163": 9676,
      "슈즈악세사리": 9677,
      "고양이맨투맨": 9678,
      "의류_여성하의_미디스커트": 9679,
      "보니타": 9680,
      "대성사봄": 9681,
      "프리반지": 9682,
      "스트링티": 9683,
      "OPE": 9684,
      "밴딩바지": 9685,
      "우디베베모델": 9686,
      "후리스팬츠": 9687,
      "벨트스커트": 9688,
      "드림맨투맨": 9689,
      "바바미뇽키즈": 9690,
      "오버롤즈": 9691,
      "60cm": 9692,
      "폼폼이": 9693,
      "프레첼": 9694,
      "BB4": 9695,
      "욕실화": 9696,
      "마크라메": 9697,
      "DAY": 9698,
      "오리지날": 9699,
      "4부레깅스": 9700,
      "롤리팝상하복": 9701,
      "항공모": 9702,
      "타탄체크": 9703,
      "IW9": 9704,
      "이레보우": 9705,
      "달달한모달": 9706,
      "미송필수": 9707,
      "만들기": 9708,
      "Korean": 9709,
      "일레븐": 9710,
      "오리엔탈": 9711,
      "포테이토": 9712,
      "4size": 9713,
      "Free": 9714,
      "KO": 9715,
      "RT": 9716,
      "R46": 9717,
      "고정": 9718,
      "고도리": 9719,
      "곰얼굴": 9720,
      "광택": 9721,
      "굿띵": 9722,
      "꽃과": 9723,
      "나물": 9724,
      "댄싱": 9725,
      "레코드": 9726,
      "루키": 9727,
      "마노": 9728,
      "매치": 9729,
      "메오": 9730,
      "모션": 9731,
      "뱀부": 9732,
      "버지": 9733,
      "보테": 9734,
      "불멍": 9735,
      "비어": 9736,
      "성신사": 9737,
      "센티": 9738,
      "슬라이스": 9739,
      "아상": 9740,
      "아코디": 9741,
      "양방울": 9742,
      "어요": 9743,
      "엘렌": 9744,
      "워리": 9745,
      "웨일": 9746,
      "은발찌": 9747,
      "조나": 9748,
      "챠코": 9749,
      "철재": 9750,
      "청벙거지": 9751,
      "추석": 9752,
      "카렌": 9753,
      "카이": 9754,
      "카프리": 9755,
      "캐럿": 9756,
      "캡소매": 9757,
      "코니아": 9758,
      "콩콩": 9759,
      "타워": 9760,
      "트롤": 9761,
      "티포크": 9762,
      "프랜드": 9763,
      "행잉": 9764,
      "허밍": 9765,
      "925Silver": 9766,
      "목걸이세트": 9767,
      "리본부츠컷": 9768,
      "라이징": 9769,
      "밴드세트": 9770,
      "1002": 9771,
      "체크자켓": 9772,
      "스마일5족세트": 9773,
      "토끼가방": 9774,
      "205": 9775,
      "하이볼": 9776,
      "스타트": 9777,
      "테리조거팬츠": 9778,
      "크롭T": 9779,
      "아크네": 9780,
      "168": 9781,
      "골덴멜빵": 9782,
      "메리원피스": 9783,
      "리틀노말": 9784,
      "173": 9785,
      "177": 9786,
      "메탈하트": 9787,
      "수영복세트": 9788,
      "마리앤": 9789,
      "5부청바지": 9790,
      "여름신상데일리데이트": 9791,
      "셀룰라이트": 9792,
      "테이크": 9793,
      "7부코튼모달슬러브": 9794,
      "코스모": 9795,
      "긴팔티셔츠": 9796,
      "메쉬운동화": 9797,
      "아일렛슈트": 9798,
      "건빵조거팬츠": 9799,
      "본딩팬츠": 9800,
      "네온덧신": 9801,
      "20x15x2": 9802,
      "시나몰": 9803,
      "고방체크": 9804,
      "다운패딩": 9805,
      "써니티": 9806,
      "꼭지베레모": 9807,
      "마네키": 9808,
      "400ml": 9809,
      "화장실": 9810,
      "사랑해": 9811,
      "티슈케이스": 9812,
      "무릎보호": 9813,
      "그래픽": 9814,
      "멜방세트": 9815,
      "POST": 9816,
      "UCLA": 9817,
      "호보백": 9818,
      "칼세도니": 9819,
      "봉재인형": 9820,
      "뷰티미용_포장재료_봉투": 9821,
      "숀더쉽": 9822,
      "2번": 9823,
      "4인": 9824,
      "4호": 9825,
      "5c": 9826,
      "5실버귀걸이": 9827,
      "Mini": 9828,
      "가게": 9829,
      "갤럭": 9830,
      "고사리": 9831,
      "관통": 9832,
      "그랜드": 9833,
      "까메오": 9834,
      "나팬츠": 9835,
      "단가": 9836,
      "달랑": 9837,
      "디올": 9838,
      "딸랑": 9839,
      "라즈": 9840,
      "루스": 9841,
      "린원피스": 9842,
      "미엘": 9843,
      "볼목걸이": 9844,
      "비팬츠": 9845,
      "세실": 9846,
      "세잎": 9847,
      "쇼퍼": 9848,
      "숟가락": 9849,
      "숲속": 9850,
      "슈팅": 9851,
      "스콘": 9852,
      "씽씽": 9853,
      "앤티크": 9854,
      "얌얌": 9855,
      "양손": 9856,
      "어게인": 9857,
      "에덴": 9858,
      "오부": 9859,
      "왕방울": 9860,
      "요리": 9861,
      "원숭": 9862,
      "원판": 9863,
      "이단": 9864,
      "죠이": 9865,
      "초등": 9866,
      "치얼": 9867,
      "콧수염": 9868,
      "쿨쿨": 9869,
      "테루": 9870,
      "토니스": 9871,
      "티세트": 9872,
      "포챠코": 9873,
      "품명": 9874,
      "플립": 9875,
      "필드": 9876,
      "하츄": 9877,
      "하하": 9878,
      "25mm": 9879,
      "하트이어링": 9880,
      "여성용": 9881,
      "주방매트": 9882,
      "1027": 9883,
      "체인발찌": 9884,
      "체크베어": 9885,
      "블루웨어": 9886,
      "레이스부츠컷": 9887,
      "카라가디건": 9888,
      "베어비니": 9889,
      "반팔니트": 9890,
      "배색티셔츠": 9891,
      "배색가디건": 9892,
      "배색반바지": 9893,
      "핑크하트": 9894,
      "1800": 9895,
      "크롭후드티": 9896,
      "221": 9897,
      "린넨바지": 9898,
      "린넨셔츠": 9899,
      "167": 9900,
      "190": 9901,
      "래빗원피스": 9902,
      "가죽목줄": 9903,
      "입고완료": 9904,
      "174": 9905,
      "퍼프T": 9906,
      "스트라이프레깅스": 9907,
      "개당2000": 9908,
      "캉캉치마": 9909,
      "프리폼": 9910,
      "스트링캡": 9911,
      "아동복_스포츠의류_트레이닝복": 9912,
      "레드몽": 9913,
      "테이퍼드": 9914,
      "식품_인삼": 9915,
      "헬로카봇": 9916,
      "치랭세트": 9917,
      "40개": 9918,
      "허그미": 9919,
      "에이모어베베": 9920,
      "카드홀더": 9921,
      "포스트잇": 9922,
      "코듀로이볼캡": 9923,
      "앙꼬봄": 9924,
      "날개슈트": 9925,
      "2_세진": 9926,
      "튜튜발레복": 9927,
      "SN45": 9928,
      "말랑말랑": 9929,
      "당근토끼": 9930,
      "포근이": 9931,
      "아웃포켓": 9932,
      "줄리엣": 9933,
      "스테이트": 9934,
      "똑딱이핀": 9935,
      "타이거맨투맨": 9936,
      "TYBT": 9937,
      "동그란": 9938,
      "캥거루맨투맨": 9939,
      "ace": 9940,
      "동백사": 9941,
      "슬라이드팔찌": 9942,
      "파스타접시": 9943,
      "알로하슈가": 9944,
      "카우보이": 9945,
      "인타록": 9946,
      "ids": 9947,
      "지르코니아": 9948,
      "비기닝": 9949,
      "사방스판": 9950,
      "쥬니플러스": 9951,
      "테레사": 9952,
      "유칼립투스": 9953,
      "마네키네코": 9954,
      "토니스토리": 9955,
      "7개": 9956,
      "AP": 9957,
      "BA": 9958,
      "MF": 9959,
      "OD": 9960,
      "P02": 9961,
      "P06": 9962,
      "VO": 9963,
      "h어반": 9964,
      "ng": 9965,
      "ter": 9966,
      "가먼트": 9967,
      "건디": 9968,
      "걸티": 9969,
      "곰상하복": 9970,
      "구스": 9971,
      "굿모닝": 9972,
      "그랭": 9973,
      "꽃바지": 9974,
      "니콜": 9975,
      "다볼": 9976,
      "뒤집개": 9977,
      "뒷밴딩": 9978,
      "듀비츠": 9979,
      "디쉬": 9980,
      "라잇": 9981,
      "라그란": 9982,
      "롱체인": 9983,
      "류가방": 9984,
      "르트": 9985,
      "리봉봉": 9986,
      "메모리": 9987,
      "미코": 9988,
      "발랄": 9989,
      "서류가방": 9990,
      "선화": 9991,
      "세련": 9992,
      "수달": 9993,
      "수선화": 9994,
      "심플라": 9995,
      "앞트임": 9996,
      "에뜨": 9997,
      "에퍼타이트": 9998,
      "오버니": 9999,
      "오슬로": 10000,
      "워드": 10001,
      "원큐빅": 10002,
      "재물": 10003,
      "정글": 10004,
      "주렁": 10005,
      "촘촘": 10006,
      "쵸커": 10007,
      "출근": 10008,
      "카밀": 10009,
      "콰트로": 10010,
      "클레이": 10011,
      "탕후루": 10012,
      "털방울": 10013,
      "테니스티": 10014,
      "트럭": 10015,
      "티스": 10016,
      "패리스": 10017,
      "포터": 10018,
      "푸바": 10019,
      "품은": 10020,
      "핀2": 10021,
      "하비": 10022,
      "후추": 10023,
      "아동헤어": 10024,
      "259": 10025,
      "24여름신상": 10026,
      "하트조거팬츠": 10027,
      "하트포인트": 10028,
      "10P": 10029,
      "10미리": 10030,
      "10월신상": 10031,
      "데님부츠컷": 10032,
      "카라블랑": 10033,
      "기모슈트": 10034,
      "골지리본": 10035,
      "프릴반팔세트": 10036,
      "반팔블라우스": 10037,
      "12월신상": 10038,
      "단가라조거팬츠": 10039,
      "코튼백": 10040,
      "코튼반바지": 10041,
      "기획상품": 10042,
      "크롭탑": 10043,
      "228": 10044,
      "보넷벙거지": 10045,
      "보넷set": 10046,
      "도트실내복": 10047,
      "SE44": 10048,
      "193": 10049,
      "1928": 10050,
      "925실버침": 10051,
      "세라맨투맨": 10052,
      "베이직맨투맨": 10053,
      "리틀앤유": 10054,
      "179": 10055,
      "퍼프니트": 10056,
      "개당2500": 10057,
      "미키원피스": 10058,
      "프리덤": 10059,
      "오리티": 10060,
      "핀턱바지": 10061,
      "삼각똑딱삔": 10062,
      "프렌드": 10063,
      "치랭상하": 10064,
      "100원": 10065,
      "토니24여름신상": 10066,
      "뉴욕세트": 10067,
      "BT9": 10068,
      "라이프_홈패브릭_커튼": 10069,
      "가든원피스": 10070,
      "라이프_공예품_화병": 10071,
      "밀짚가방": 10072,
      "BBB": 10073,
      "TEE220": 10074,
      "윈드브레이커": 10075,
      "도자기공예": 10076,
      "에브리데이": 10077,
      "도그티": 10078,
      "4x4x": 10079,
      "엠엔제이세일": 10080,
      "사각팬티4P세트": 10081,
      "야상점퍼": 10082,
      "정리함": 10083,
      "BT307": 10084,
      "샐러드마켓": 10085,
      "레저_하의": 10086,
      "모기퇴치팔찌": 10087,
      "디너접시": 10088,
      "챔피언": 10089,
      "렛츠고": 10090,
      "트랜스": 10091,
      "ne_00": 10092,
      "GOOD": 10093,
      "믹싱볼": 10094,
      "보헤미안": 10095,
      "아름다운풍경": 10096,
      "아코디언": 10097,
      "갤럭시": 10098,
      "그랭드": 10099,
      "014": 10100,
      "1월신상": 10101,
      "3족": 10102,
      "306": 10103,
      "5미리": 10104,
      "9개": 10105,
      "AV": 10106,
      "Lim": 10107,
      "MOR": 10108,
      "OK": 10109,
      "PS": 10110,
      "UN": 10111,
      "ba": 10112,
      "jp": 10113,
      "ᄃ자": 10114,
      "고스트": 10115,
      "꽃반지": 10116,
      "꽃토끼": 10117,
      "낮은": 10118,
      "뉴트로": 10119,
      "니언": 10120,
      "니팅": 10121,
      "달빛": 10122,
      "등원": 10123,
      "리베": 10124,
      "리보니": 10125,
      "리파인드": 10126,
      "매화": 10127,
      "머스타드": 10128,
      "민토이": 10129,
      "밍키": 10130,
      "바드": 10131,
      "바막": 10132,
      "배넷": 10133,
      "변경": 10134,
      "복민토이": 10135,
      "빅백": 10136,
      "상콤": 10137,
      "셀리": 10138,
      "소금": 10139,
      "스텝": 10140,
      "써핑": 10141,
      "아원피스": 10142,
      "앵클": 10143,
      "오토": 10144,
      "와팬": 10145,
      "울양말": 10146,
      "은팬던트": 10147,
      "이클": 10148,
      "정상": 10149,
      "졸리": 10150,
      "차량": 10151,
      "챔프": 10152,
      "청P": 10153,
      "총총": 10154,
      "카펜": 10155,
      "캐슬": 10156,
      "케일": 10157,
      "탕기": 10158,
      "파란": 10159,
      "펌프스": 10160,
      "평판": 10161,
      "폴더": 10162,
      "해변": 10163,
      "황수정": 10164,
      "귀걸이2": 10165,
      "목걸이N": 10166,
      "리본삔세트": 10167,
      "피어싱_C": 10168,
      "하트자수": 10169,
      "미니곰": 10170,
      "팔찌_": 10171,
      "1004": 10172,
      "10켤레": 10173,
      "진주키링": 10174,
      "진주장식": 10175,
      "진주믹스": 10176,
      "체크꽃": 10177,
      "데님조거팬츠": 10178,
      "데님청반바지": 10179,
      "골지바지": 10180,
      "프릴리본": 10181,
      "156": 10182,
      "단가라폴라티": 10183,
      "017": 10184,
      "188": 10185,
      "크롭블라우스": 10186,
      "스판청바지": 10187,
      "무지비니": 10188,
      "러브유": 10189,
      "패딩자켓": 10190,
      "패딩슈트": 10191,
      "1980": 10192,
      "세라블라우스": 10193,
      "꼬임밴드": 10194,
      "포장용": 10195,
      "스트라이프원피스": 10196,
      "버터나이프": 10197,
      "에스프레": 10198,
      "볼드이어링": 10199,
      "바라클": 10200,
      "스트링맨투맨": 10201,
      "누비조끼": 10202,
      "공룡슈트": 10203,
      "셔링슈트": 10204,
      "로라앨리": 10205,
      "주방용품_주방조리도구_베이킹": 10206,
      "26cm": 10207,
      "워싱청바지": 10208,
      "절개바지": 10209,
      "절개청바지": 10210,
      "절개조거팬츠": 10211,
      "메쉬볼캡모자": 10212,
      "원석목걸이": 10213,
      "100g": 10214,
      "멀티단가라티": 10215,
      "라리마": 10216,
      "마린티": 10217,
      "뷔스티에티": 10218,
      "200ml": 10219,
      "벨로아조거팬츠": 10220,
      "빅뱅정상": 10221,
      "스타일스토리": 10222,
      "찰랑찰랑": 10223,
      "BEVI": 10224,
      "레자리본": 10225,
      "피넛버터": 10226,
      "GH29": 10227,
      "시그니쳐": 10228,
      "휴대폰줄": 10229,
      "에스크미에니띵": 10230,
      "5족한세트": 10231,
      "150cm": 10232,
      "행운의": 10233,
      "전체은반지": 10234,
      "토우링": 10235,
      "보냉가방": 10236,
      "마미상사": 10237,
      "MYBEVI": 10238,
      "부스터팩": 10239,
      "ign": 10240,
      "애착인형": 10241,
      "베개상자": 10242,
      "필라테스": 10243,
      "소시지": 10244,
      "현관문": 10245,
      "오크밀": 10246,
      "메뚜기캡": 10247,
      "yke210": 10248,
      "식품_인삼_": 10249,
      "MORE": 10250,
      "에스프레소": 10251,
      "주방용품_주방조리도구_베이킹용품": 10252,
      "2000원": 10253,
      "323": 10254,
      "4칼라": 10255,
      "5_": 10256,
      "6000": 10257,
      "C형": 10258,
      "Love": 10259,
      "Summer": 10260,
      "Y자": 10261,
      "lace": 10262,
      "갈릴리": 10263,
      "고탄력": 10264,
      "교역": 10265,
      "교정": 10266,
      "그로우": 10267,
      "넥키": 10268,
      "대신상": 10269,
      "댄스": 10270,
      "띠에": 10271,
      "라엘": 10272,
      "란드": 10273,
      "레토": 10274,
      "렌치": 10275,
      "롱드롭": 10276,
      "만년": 10277,
      "맥베베": 10278,
      "목침": 10279,
      "물통": 10280,
      "반링": 10281,
      "반티": 10282,
      "벅스": 10283,
      "베넷": 10284,
      "병정": 10285,
      "부릉": 10286,
      "솔솔": 10287,
      "솜뭉치": 10288,
      "시바": 10289,
      "시안": 10290,
      "심볼": 10291,
      "알프스": 10292,
      "앞주름": 10293,
      "에도": 10294,
      "엘이디": 10295,
      "여울": 10296,
      "연출": 10297,
      "온세계": 10298,
      "옳음": 10299,
      "음표": 10300,
      "이맨투맨": 10301,
      "인피": 10302,
      "자루": 10303,
      "잠자리": 10304,
      "좌우": 10305,
      "청순": 10306,
      "캐롯": 10307,
      "콩순이": 10308,
      "쿨팬츠": 10309,
      "토슈즈": 10310,
      "팜스": 10311,
      "팽이": 10312,
      "피티": 10313,
      "247": 10314,
      "리본샌들": 10315,
      "리본퍼프티": 10316,
      "리본테잎": 10317,
      "하트뿅뿅": 10318,
      "미니볼": 10319,
      "니트벙거지": 10320,
      "체크조끼": 10321,
      "카라남방": 10322,
      "기모상하": 10323,
      "베어볼캡": 10324,
      "동물농장": 10325,
      "자수셔츠": 10326,
      "158": 10327,
      "14인치": 10328,
      "단가라t": 10329,
      "단가라원피스": 10330,
      "단가라실내복": 10331,
      "라라라": 10332,
      "181": 10333,
      "18mm": 10334,
      "스판데님": 10335,
      "스판반바지": 10336,
      "공예품": 10337,
      "주름sk": 10338,
      "카고조거바지": 10339,
      "053": 10340,
      "078": 10341,
      "유니밴드": 10342,
      "ST세트": 10343,
      "ST조거팬츠": 10344,
      "똑딱핀3판세트": 10345,
      "바닐라버니봄": 10346,
      "스카프링": 10347,
      "나염세트": 10348,
      "빈티지맨투맨": 10349,
      "레인보우프렌즈": 10350,
      "일자형": 10351,
      "젤리샌들": 10352,
      "트위드세트": 10353,
      "타이슈트": 10354,
      "45cm": 10355,
      "뽀글이방한모": 10356,
      "바람개비": 10357,
      "단추원피스": 10358,
      "뜨개질": 10359,
      "바니죠이": 10360,
      "통통이": 10361,
      "구슬목걸이": 10362,
      "아기곰": 10363,
      "SR43": 10364,
      "테이프티": 10365,
      "형광펜": 10366,
      "푸들티": 10367,
      "MMER": 10368,
      "토시레깅스": 10369,
      "GH3": 10370,
      "3M28": 10371,
      "5pic": 10372,
      "atur": 10373,
      "아르브": 10374,
      "MAC": 10375,
      "스피드": 10376,
      "SUMMER": 10377,
      "마스킹": 10378,
      "비누받침": 10379,
      "헤드셋": 10380,
      "에펠탑": 10381,
      "트로피컬": 10382,
      "JuJu": 10383,
      "옥스퍼드": 10384,
      "에티켓": 10385,
      "디지털": 10386,
      "하코야": 10387,
      "프론트": 10388,
      "수원교역": 10389,
      "액체키링": 10390,
      "무릎보호대": 10391,
      "라즈베리": 10392,
      "그랭드보떼": 10393,
      "평판비닐": 10394,
      "대신상회": 10395,
      "025": 10396,
      "5칼라": 10397,
      "A5": 10398,
      "AW": 10399,
      "BET": 10400,
      "DB": 10401,
      "IS": 10402,
      "NQ": 10403,
      "mom": 10404,
      "간지": 10405,
      "갤러리": 10406,
      "기차": 10407,
      "기모자": 10408,
      "납짝": 10409,
      "냉감": 10410,
      "더스": 10411,
      "더라라라": 10412,
      "래글런": 10413,
      "로쿠": 10414,
      "링고": 10415,
      "마감": 10416,
      "무빙": 10417,
      "물안경": 10418,
      "바르": 10419,
      "벨르": 10420,
      "복슬": 10421,
      "북마크": 10422,
      "뿔비니": 10423,
      "손뜨개": 10424,
      "숏캡모자": 10425,
      "스컷": 10426,
      "와상": 10427,
      "인사이드": 10428,
      "중성": 10429,
      "즐리": 10430,
      "지니어": 10431,
      "직구멍": 10432,
      "타일": 10433,
      "타이니": 10434,
      "탐탐": 10435,
      "토숀": 10436,
      "투밴드": 10437,
      "틴틴": 10438,
      "퍼펙": 10439,
      "폴딩": 10440,
      "플로우": 10441,
      "하울": 10442,
      "한국": 10443,
      "악세사리_귀걸이_이어커프": 10444,
      "후드니트": 10445,
      "후드짚업": 10446,
      "리본레이스": 10447,
      "리본구두": 10448,
      "리본로퍼": 10449,
      "양말5P세트": 10450,
      "하트참": 10451,
      "미니트": 10452,
      "레깅스세트": 10453,
      "레깅스팬츠": 10454,
      "팔찌세트": 10455,
      "스트라": 10456,
      "큐빅라인": 10457,
      "플라워슈트": 10458,
      "플라워삭스": 10459,
      "레이스세트": 10460,
      "레이스바지": 10461,
      "레이스카라원피스": 10462,
      "카라점퍼": 10463,
      "기모양말3P세트": 10464,
      "토끼귀": 10465,
      "프릴보넷": 10466,
      "반팔맨투맨": 10467,
      "스타티": 10468,
      "사각똑딱핀": 10469,
      "사각나물": 10470,
      "12종": 10471,
      "12_925실버": 10472,
      "머리띠세트": 10473,
      "테리상하복": 10474,
      "226": 10475,
      "227": 10476,
      "스판부츠컷": 10477,
      "나비집게핀": 10478,
      "레이어드반지세트": 10479,
      "린넨원피스": 10480,
      "카고데님팬츠": 10481,
      "반려동물_패션_견주": 10482,
      "194": 10483,
      "197": 10484,
      "와플카라티": 10485,
      "30mm": 10486,
      "유니실내복": 10487,
      "ST팬츠": 10488,
      "ST카라티": 10489,
      "슬리핑": 10490,
      "개당500": 10491,
      "LED털": 10492,
      "5x9": 10493,
      "밍크기모": 10494,
      "셔링스커트": 10495,
      "식품_가공": 10496,
      "식품_간편": 10497,
      "트임맨투맨": 10498,
      "키티레깅스": 10499,
      "슬림밴드": 10500,
      "후리스세트": 10501,
      "랍빠세트": 10502,
      "큐티베어": 10503,
      "매듭끈": 10504,
      "피그먼트맨투맨": 10505,
      "민자머리띠": 10506,
      "눈꽃원피스": 10507,
      "본딩자켓": 10508,
      "TEE320": 10509,
      "20개세트": 10510,
      "찰랑팬츠": 10511,
      "스윔수트": 10512,
      "메이플E": 10513,
      "올림피아": 10514,
      "육각벙거지": 10515,
      "디셈버귀걸이00": 10516,
      "플레어스커트": 10517,
      "로스엔젤": 10518,
      "7mmx": 10519,
      "라피아햇": 10520,
      "미스미시": 10521,
      "골지날라리레깅스": 10522,
      "그런지": 10523,
      "말티즈": 10524,
      "BETTER": 10525,
      "반려동물_패션_견주의류": 10526,
      "식품_가공식품_간편": 10527,
      "식품_가공식품_간편식품": 10528,
      "1M": 10529,
      "217": 10530,
      "8p": 10531,
      "9mm": 10532,
      "C은침귀걸이": 10533,
      "PAR": 10534,
      "R4": 10535,
      "XY": 10536,
      "br": 10537,
      "bro": 10538,
      "free": 10539,
      "글러브": 10540,
      "금박": 10541,
      "껌껌": 10542,
      "나원피스": 10543,
      "달린": 10544,
      "란다": 10545,
      "모코": 10546,
[...]
